#ifndef SINE_MODEL_H
#define SINE_MODEL_H

unsigned int sine_model_len = 3196;
unsigned char sine_model[] = {
 0x1c, 0x00, 0x00, 0x00, 0x54, 0x46, 0x4c, 0x33, 0x14, 0x00, 0x20, 0x00,
  0x1c, 0x00, 0x18, 0x00, 0x14, 0x00, 0x10, 0x00, 0x0c, 0x00, 0x00, 0x00,
  0x08, 0x00, 0x04, 0x00, 0x14, 0x00, 0x00, 0x00, 0x1c, 0x00, 0x00, 0x00,
  0x94, 0x00, 0x00, 0x00, 0xec, 0x00, 0x00, 0x00, 0x08, 0x07, 0x00, 0x00,
  0x18, 0x07, 0x00, 0x00, 0x28, 0x0c, 0x00, 0x00, 0x03, 0x00, 0x00, 0x00,
  0x01, 0x00, 0x00, 0x00, 0x10, 0x00, 0x00, 0x00, 0x00, 0x00, 0x0a, 0x00,
  0x10, 0x00, 0x0c, 0x00, 0x08, 0x00, 0x04, 0x00, 0x0a, 0x00, 0x00, 0x00,
  0x0c, 0x00, 0x00, 0x00, 0x1c, 0x00, 0x00, 0x00, 0x38, 0x00, 0x00, 0x00,
  0x0f, 0x00, 0x00, 0x00, 0x73, 0x65, 0x72, 0x76, 0x69, 0x6e, 0x67, 0x5f,
  0x64, 0x65, 0x66, 0x61, 0x75, 0x6c, 0x74, 0x00, 0x01, 0x00, 0x00, 0x00,
  0x04, 0x00, 0x00, 0x00, 0x94, 0xff, 0xff, 0xff, 0x09, 0x00, 0x00, 0x00,
  0x04, 0x00, 0x00, 0x00, 0x07, 0x00, 0x00, 0x00, 0x64, 0x65, 0x6e, 0x73,
  0x65, 0x5f, 0x35, 0x00, 0x01, 0x00, 0x00, 0x00, 0x04, 0x00, 0x00, 0x00,
  0x86, 0xf9, 0xff, 0xff, 0x04, 0x00, 0x00, 0x00, 0x0d, 0x00, 0x00, 0x00,
  0x64, 0x65, 0x6e, 0x73, 0x65, 0x5f, 0x33, 0x5f, 0x69, 0x6e, 0x70, 0x75,
  0x74, 0x00, 0x00, 0x00, 0x02, 0x00, 0x00, 0x00, 0x34, 0x00, 0x00, 0x00,
  0x04, 0x00, 0x00, 0x00, 0xdc, 0xff, 0xff, 0xff, 0x0c, 0x00, 0x00, 0x00,
  0x04, 0x00, 0x00, 0x00, 0x13, 0x00, 0x00, 0x00, 0x43, 0x4f, 0x4e, 0x56,
  0x45, 0x52, 0x53, 0x49, 0x4f, 0x4e, 0x5f, 0x4d, 0x45, 0x54, 0x41, 0x44,
  0x41, 0x54, 0x41, 0x00, 0x08, 0x00, 0x0c, 0x00, 0x08, 0x00, 0x04, 0x00,
  0x08, 0x00, 0x00, 0x00, 0x0b, 0x00, 0x00, 0x00, 0x04, 0x00, 0x00, 0x00,
  0x13, 0x00, 0x00, 0x00, 0x6d, 0x69, 0x6e, 0x5f, 0x72, 0x75, 0x6e, 0x74,
  0x69, 0x6d, 0x65, 0x5f, 0x76, 0x65, 0x72, 0x73, 0x69, 0x6f, 0x6e, 0x00,
  0x0d, 0x00, 0x00, 0x00, 0x18, 0x06, 0x00, 0x00, 0x10, 0x06, 0x00, 0x00,
  0xfc, 0x05, 0x00, 0x00, 0xa4, 0x05, 0x00, 0x00, 0x54, 0x05, 0x00, 0x00,
  0x04, 0x05, 0x00, 0x00, 0xf4, 0x00, 0x00, 0x00, 0xa4, 0x00, 0x00, 0x00,
  0x9c, 0x00, 0x00, 0x00, 0x94, 0x00, 0x00, 0x00, 0x8c, 0x00, 0x00, 0x00,
  0x6c, 0x00, 0x00, 0x00, 0x04, 0x00, 0x00, 0x00, 0x36, 0xfa, 0xff, 0xff,
  0x04, 0x00, 0x00, 0x00, 0x58, 0x00, 0x00, 0x00, 0x0c, 0x00, 0x00, 0x00,
  0x08, 0x00, 0x0e, 0x00, 0x08, 0x00, 0x04, 0x00, 0x08, 0x00, 0x00, 0x00,
  0x10, 0x00, 0x00, 0x00, 0x28, 0x00, 0x00, 0x00, 0x00, 0x00, 0x06, 0x00,
  0x08, 0x00, 0x04, 0x00, 0x06, 0x00, 0x00, 0x00, 0x04, 0x00, 0x00, 0x00,
  0x01, 0x00, 0x00, 0x00, 0xea, 0x03, 0x00, 0x00, 0x00, 0x00, 0x0a, 0x00,
  0x10, 0x00, 0x0c, 0x00, 0x08, 0x00, 0x04, 0x00, 0x0a, 0x00, 0x00, 0x00,
  0x02, 0x00, 0x00, 0x00, 0x02, 0x00, 0x00, 0x00, 0x04, 0x00, 0x00, 0x00,
  0x06, 0x00, 0x00, 0x00, 0x32, 0x2e, 0x31, 0x32, 0x2e, 0x30, 0x00, 0x00,
  0x9a, 0xfa, 0xff, 0xff, 0x04, 0x00, 0x00, 0x00, 0x10, 0x00, 0x00, 0x00,
  0x31, 0x2e, 0x35, 0x2e, 0x30, 0x00, 0x00, 0x00, 0x00, 0x00, 0x00, 0x00,
  0x00, 0x00, 0x00, 0x00, 0xa8, 0xf5, 0xff, 0xff, 0xac, 0xf5, 0xff, 0xff,
  0xb0, 0xf5, 0xff, 0xff, 0xc2, 0xfa, 0xff, 0xff, 0x04, 0x00, 0x00, 0x00,
  0x40, 0x00, 0x00, 0x00, 0x8f, 0x59, 0x9c, 0x3f, 0xbe, 0x41, 0xd2, 0x3e,
  0x83, 0x99, 0xfc, 0x3e, 0x14, 0x01, 0x5e, 0xbf, 0x72, 0x28, 0xb6, 0x3f,
  0x20, 0x7a, 0xc5, 0x3d, 0x89, 0xa9, 0x41, 0x3f, 0x92, 0x66, 0x23, 0xbf,
  0x23, 0x63, 0xf4, 0x3e, 0x13, 0xc3, 0x46, 0x3e, 0xff, 0xa3, 0x17, 0xbf,
  0x29, 0x40, 0x8d, 0x3f, 0x0c, 0x32, 0xc9, 0x3e, 0xac, 0x28, 0x86, 0x3f,
  0xeb, 0xdf, 0x59, 0x3f, 0xeb, 0x31, 0x77, 0x3e, 0x0e, 0xfb, 0xff, 0xff,
  0x04, 0x00, 0x00, 0x00, 0x00, 0x04, 0x00, 0x00, 0x10, 0xbb, 0xa7, 0x3d,
  0xec, 0xca, 0xad, 0x3d, 0x72, 0x14, 0x1e, 0x3e, 0x64, 0x34, 0x98, 0xbe,
  0x22, 0xc0, 0x76, 0x3d, 0x0d, 0x96, 0xd8, 0x3c, 0x21, 0xcd, 0xef, 0x3c,
  0x0d, 0x6d, 0xcd, 0x3e, 0xa0, 0x0f, 0x66, 0xbe, 0x6c, 0x59, 0xe7, 0x3d,
  0x2f, 0x24, 0x46, 0xbf, 0x8a, 0xc0, 0xc7, 0xbe, 0x77, 0xee, 0xa2, 0x3e,
  0x13, 0xdf, 0xc8, 0x3d, 0xd2, 0x10, 0xde, 0x3d, 0x69, 0xa6, 0x9a, 0x3e,
  0x6d, 0x99, 0xb6, 0xbe, 0x58, 0xe5, 0x64, 0xbd, 0x08, 0xa4, 0x9d, 0xbd,
  0x4a, 0xd6, 0x39, 0x3d, 0xc6, 0x8a, 0x1f, 0x3e, 0xd3, 0x94, 0x08, 0x3e,
  0xfd, 0x7f, 0x1c, 0xbe, 0x84, 0x8e, 0x82, 0x3d, 0x55, 0x2b, 0xd2, 0x3e,
  0x1c, 0x5a, 0x52, 0xbe, 0x19, 0x70, 0xd4, 0xbd, 0x18, 0x00, 0x7e, 0xbd,
  0x82, 0x4b, 0xbb, 0xbe, 0x70, 0x3a, 0xb7, 0xbe, 0x8d, 0xbc, 0x03, 0x3e,
  0xbc, 0xa8, 0xab, 0x3d, 0x19, 0x8b, 0x24, 0xbe, 0x69, 0x8f, 0x57, 0xbe,
  0x70, 0x74, 0xe6, 0xbc, 0xfb, 0xb9, 0xcf, 0x3c, 0xa5, 0x4e, 0xa8, 0x3e,
  0x86, 0x19, 0x3b, 0x3d, 0xf5, 0xb2, 0xcf, 0xbe, 0xdd, 0x0b, 0x63, 0xbe,
  0x10, 0x81, 0xb5, 0x3c, 0xc3, 0x78, 0x8a, 0x3e, 0x82, 0xf7, 0x7d, 0x3e,
  0xb1, 0x94, 0xb9, 0x3e, 0x80, 0x63, 0xd8, 0xbc, 0x0f, 0x5e, 0x89, 0xbe,
  0x00, 0xa2, 0x5d, 0x3e, 0x3b, 0x49, 0xe8, 0xbe, 0x57, 0x83, 0xa7, 0x3e,
  0xac, 0x44, 0xc6, 0x3d, 0x93, 0xd4, 0xa2, 0x3e, 0x5d, 0xfd, 0x80, 0xbf,
  0x6a, 0x23, 0x10, 0xbf, 0xfb, 0xb1, 0x8c, 0xbf, 0x68, 0x2d, 0xbe, 0x3d,
  0x36, 0x8a, 0x4e, 0x3e, 0x22, 0xe8, 0x59, 0x3e, 0x0e, 0x9a, 0x35, 0xbe,
  0x94, 0x13, 0x19, 0x3f, 0x3c, 0x67, 0xb1, 0xbd, 0x3a, 0x1f, 0x4b, 0x3e,
  0x22, 0xf9, 0xe4, 0xbe, 0x19, 0x55, 0xac, 0xbe, 0xb9, 0x86, 0x8e, 0xbe,
  0x82, 0x14, 0x07, 0xbf, 0x00, 0x58, 0x6d, 0xba, 0xc6, 0xbd, 0x88, 0xbe,
  0x5b, 0x35, 0x36, 0xbe, 0x47, 0xcb, 0xc4, 0x3e, 0x94, 0x0f, 0xb4, 0xbe,
  0xd0, 0xd8, 0x2d, 0x3d, 0x73, 0x35, 0xbd, 0xbe, 0x80, 0xf7, 0x79, 0xbc,
  0x1a, 0x32, 0x07, 0x3e, 0x64, 0x13, 0x25, 0xbf, 0xc0, 0xcd, 0x26, 0x3d,
  0xb1, 0xdf, 0xd2, 0xbe, 0x1f, 0xfa, 0xec, 0x3e, 0xb6, 0x93, 0xfe, 0x3d,
  0x1f, 0x2f, 0xa6, 0x3e, 0x7c, 0xdc, 0xc0, 0xbe, 0xa4, 0xee, 0xb2, 0xbe,
  0x96, 0xd9, 0x03, 0xbe, 0x03, 0x63, 0xab, 0xbe, 0xd4, 0x8c, 0x38, 0xbe,
  0x6a, 0x23, 0xc5, 0xbe, 0x70, 0xa4, 0x67, 0xbe, 0x00, 0x4d, 0xa8, 0xbc,
  0xc0, 0xda, 0xce, 0xbb, 0x80, 0x71, 0x9a, 0xbb, 0x0c, 0xf8, 0x07, 0xbe,
  0xd9, 0x9e, 0xda, 0x3e, 0xa0, 0x05, 0x55, 0xbc, 0x96, 0x41, 0x07, 0xbe,
  0x72, 0x28, 0xd7, 0xbe, 0xe1, 0xf6, 0xc9, 0x3e, 0x4f, 0x6f, 0xfc, 0x3e,
  0xf4, 0xd6, 0x2b, 0xbe, 0x0c, 0x04, 0xc4, 0x3d, 0x12, 0x09, 0x00, 0x3e,
  0x33, 0x83, 0x3b, 0xbe, 0xcc, 0x9a, 0xa8, 0x3e, 0xed, 0x18, 0x12, 0x3f,
  0xf8, 0xbb, 0x24, 0xbd, 0x55, 0xf0, 0xbf, 0xbe, 0x80, 0x4f, 0xfd, 0xbd,
  0xc9, 0x00, 0x0e, 0xbe, 0x70, 0xa3, 0x8f, 0xbc, 0xbc, 0x3e, 0xf3, 0x3d,
  0xf2, 0x7d, 0xcc, 0xbe, 0xea, 0x15, 0x28, 0xbf, 0xc7, 0x6e, 0xaf, 0xbe,
  0x00, 0xc3, 0x4f, 0x3e, 0xe0, 0x5f, 0x86, 0xbd, 0xc9, 0xa2, 0xdc, 0xbe,
  0x19, 0xe9, 0x03, 0x3f, 0x80, 0x2a, 0x4f, 0xbc, 0x09, 0x83, 0x05, 0xbe,
  0xcd, 0x4b, 0x93, 0x3e, 0xf5, 0x93, 0xdd, 0x3e, 0x42, 0xbf, 0x64, 0x3e,
  0x92, 0x72, 0x2b, 0x3e, 0xd0, 0x97, 0x01, 0xbf, 0x9f, 0x78, 0x84, 0x3e,
  0x49, 0xed, 0xc6, 0x3e, 0x31, 0x5c, 0x10, 0x3f, 0x4d, 0xaf, 0xda, 0x3e,
  0xe6, 0x80, 0x90, 0xbd, 0x46, 0x74, 0x28, 0xbe, 0xab, 0x7d, 0xb5, 0x3e,
  0x48, 0x66, 0x6b, 0x3d, 0xea, 0x29, 0xca, 0x3e, 0x6a, 0x08, 0xdb, 0xbe,
  0x5a, 0x1e, 0x8d, 0xbe, 0x43, 0xa4, 0x0b, 0x3d, 0xa4, 0x58, 0xb2, 0xbe,
  0xb1, 0x95, 0x97, 0xbe, 0xf8, 0x49, 0x4b, 0xbd, 0x86, 0xf6, 0x27, 0x3e,
  0x00, 0x30, 0x33, 0xba, 0xc8, 0x4f, 0x44, 0xbd, 0x88, 0x7c, 0xb1, 0xbe,
  0x9c, 0x2e, 0xd3, 0xbe, 0x68, 0x44, 0x5b, 0x3d, 0x02, 0x91, 0x2c, 0x3e,
  0x2b, 0x13, 0x8b, 0x3e, 0xec, 0xd8, 0xc4, 0x3d, 0xf2, 0x0c, 0x87, 0xbe,
  0xb8, 0x70, 0x78, 0x3e, 0x3e, 0xeb, 0x91, 0xbe, 0xfb, 0xac, 0x84, 0x3e,
  0x9c, 0x31, 0xaf, 0x3d, 0x03, 0xf3, 0xc9, 0x3e, 0x00, 0x1f, 0x1c, 0xbb,
  0x98, 0xb9, 0xec, 0x3d, 0x4f, 0xb0, 0xb6, 0x3e, 0x92, 0x19, 0x2a, 0x3e,
  0xec, 0x5e, 0xf6, 0xbe, 0x70, 0x0e, 0xc8, 0x3d, 0xf0, 0xa3, 0xa2, 0xbe,
  0xb0, 0x58, 0x9e, 0xbe, 0xdd, 0x31, 0x9b, 0x3e, 0x76, 0x73, 0x73, 0x3e,
  0x6b, 0x37, 0x4f, 0xbe, 0x02, 0x08, 0xb0, 0xbe, 0xb2, 0x9b, 0xcb, 0x3e,
  0x88, 0x3c, 0x20, 0x3e, 0xb0, 0xf9, 0x08, 0x3d, 0x04, 0xd6, 0xa8, 0x3d,
  0x40, 0xcf, 0xf5, 0xbd, 0xe4, 0xd3, 0xf5, 0xbe, 0xba, 0x7c, 0x21, 0x3e,
  0xbd, 0x13, 0x7d, 0xbe, 0xac, 0x2b, 0xcc, 0x3e, 0x8a, 0x2b, 0x04, 0x3f,
  0x1e, 0x0b, 0xa2, 0x3c, 0x0d, 0x26, 0x0e, 0xbe, 0xcb, 0x13, 0x70, 0xbe,
  0x40, 0x4d, 0x8c, 0xbe, 0xd0, 0x93, 0x9e, 0x3d, 0x7d, 0x02, 0x79, 0xbd,
  0x74, 0x80, 0xc4, 0xbe, 0x1c, 0x11, 0xee, 0xbd, 0xd1, 0xbd, 0x92, 0x3e,
  0x06, 0xe7, 0x0b, 0xbe, 0x94, 0xd1, 0xb5, 0xbe, 0xa1, 0xf3, 0x99, 0xbd,
  0x55, 0xce, 0xbe, 0x3e, 0xe2, 0x1c, 0x3f, 0x3e, 0xbb, 0x92, 0x9c, 0x3e,
  0xf2, 0x97, 0xce, 0x3e, 0xdb, 0xe0, 0x83, 0x3e, 0x6a, 0xdb, 0x9c, 0x3e,
  0xd4, 0x98, 0x9b, 0x3d, 0x64, 0xc9, 0xda, 0x3d, 0x85, 0xbd, 0x9b, 0xbe,
  0xf9, 0xfa, 0x09, 0xbd, 0x48, 0x56, 0x37, 0x3e, 0xe8, 0x57, 0xc4, 0x3e,
  0xaa, 0x7c, 0x66, 0x3e, 0xdc, 0x91, 0xbb, 0xbe, 0x31, 0xbc, 0x9a, 0xbe,
  0x00, 0x38, 0x80, 0x3e, 0xaa, 0x56, 0x93, 0xbe, 0x79, 0x57, 0xd8, 0x3e,
  0x72, 0x90, 0x8e, 0xbe, 0xd4, 0x36, 0xcb, 0x3c, 0x18, 0x31, 0x2c, 0x3e,
  0x3f, 0x5c, 0xae, 0xbe, 0x9b, 0x20, 0xd1, 0x3e, 0x48, 0x5f, 0x73, 0x3d,
  0xc0, 0xa8, 0xbb, 0xbe, 0x73, 0xc3, 0xad, 0x3e, 0xac, 0x80, 0xea, 0xbd,
  0x8e, 0x53, 0x6d, 0xbd, 0x10, 0xa8, 0x4d, 0x3d, 0x6a, 0x73, 0x4e, 0x3e,
  0x60, 0x55, 0x70, 0x3d, 0x75, 0x59, 0x05, 0xbf, 0x29, 0x47, 0x9d, 0x3e,
  0x5c, 0x3d, 0xeb, 0x3d, 0x3a, 0xdf, 0xf0, 0x3e, 0x76, 0x7a, 0xe9, 0xbc,
  0xfb, 0x5a, 0xc7, 0x3e, 0x3a, 0xe1, 0x18, 0xbf, 0xaf, 0xba, 0xc0, 0x3e,
  0xe3, 0x2c, 0x94, 0x3e, 0xec, 0x98, 0x9a, 0x3e, 0x0e, 0xb4, 0x96, 0xbe,
  0x78, 0xe9, 0x3b, 0x3e, 0x9e, 0x90, 0xcc, 0x3d, 0x3f, 0x49, 0xc7, 0xbe,
  0xf2, 0x17, 0x62, 0x3e, 0x74, 0xde, 0x80, 0xbe, 0xfa, 0x76, 0x0f, 0xbf,
  0x94, 0x4b, 0x94, 0x3d, 0x14, 0x4b, 0xae, 0xbe, 0xf1, 0xfb, 0x82, 0xbe,
  0x08, 0xd8, 0xc1, 0x3e, 0xaa, 0x1e, 0xb1, 0x3e, 0xe5, 0xb7, 0xb9, 0xbd,
  0x51, 0xe7, 0x9f, 0xbe, 0x42, 0xfe, 0xad, 0xbe, 0x03, 0x4c, 0x11, 0x3e,
  0x32, 0xb3, 0x7e, 0xbd, 0x64, 0xbb, 0x28, 0xbd, 0x14, 0x94, 0xb6, 0x3e,
  0x32, 0x48, 0x1a, 0x3e, 0x54, 0x2e, 0x8d, 0xbd, 0x75, 0xb7, 0x9d, 0x3e,
  0xf8, 0x0e, 0x1d, 0xbe, 0x38, 0x1b, 0x84, 0xbd, 0x40, 0x38, 0x12, 0x3c,
  0xa1, 0x3d, 0x96, 0xbe, 0x0a, 0xb0, 0x4c, 0xbd, 0xeb, 0x50, 0x8f, 0xbe,
  0x1a, 0xff, 0xff, 0xff, 0x04, 0x00, 0x00, 0x00, 0x40, 0x00, 0x00, 0x00,
  0xfe, 0x9b, 0x33, 0x3c, 0x93, 0xf1, 0x9d, 0xbe, 0x50, 0x25, 0x00, 0xbe,
  0x0b, 0x9d, 0xd6, 0x3d, 0x3d, 0x4a, 0x8a, 0x3e, 0xbc, 0x2c, 0xb6, 0x3e,
  0x85, 0xed, 0x98, 0x3e, 0x94, 0x51, 0xe6, 0xbe, 0x10, 0xb3, 0xfd, 0xbe,
  0xf0, 0x4c, 0x7a, 0xbd, 0x0f, 0x4a, 0x88, 0xbd, 0xd7, 0xb5, 0x86, 0xbe,
  0x36, 0x05, 0x0b, 0xbf, 0x73, 0x0d, 0xac, 0x3e, 0x09, 0x0f, 0x1f, 0x3f,
  0xbf, 0xcc, 0x4d, 0x3e, 0x66, 0xff, 0xff, 0xff, 0x04, 0x00, 0x00, 0x00,
  0x40, 0x00, 0x00, 0x00, 0x92, 0x64, 0x06, 0x3f, 0x00, 0x00, 0x00, 0x00,
  0x00, 0x00, 0x00, 0x00, 0x1b, 0xd7, 0x8f, 0x3d, 0xf1, 0xac, 0x8c, 0xbb,
  0x21, 0x1d, 0x9a, 0x3d, 0xf7, 0xdc, 0xe6, 0x3d, 0x00, 0x00, 0x00, 0x00,
  0x00, 0x00, 0x00, 0x00, 0x00, 0x00, 0x00, 0x00, 0xdd, 0xb7, 0x2a, 0x3f,
  0x00, 0x00, 0x00, 0x00, 0x00, 0x00, 0x00, 0x00, 0x9c, 0xc1, 0x27, 0xbf,
  0x99, 0xec, 0x23, 0xbf, 0x32, 0x7e, 0x95, 0xbe, 0xb2, 0xff, 0xff, 0xff,
  0x04, 0x00, 0x00, 0x00, 0x40, 0x00, 0x00, 0x00, 0xd6, 0x3f, 0x98, 0xbe,
  0xd5, 0xcb, 0x80, 0xbd, 0xf1, 0x0e, 0x2c, 0xbd, 0x34, 0x93, 0xbd, 0x3e,
  0xf9, 0xef, 0xa8, 0xbe, 0x00, 0x00, 0x00, 0x00, 0x93, 0xb7, 0xa3, 0x3e,
  0x85, 0x69, 0xa1, 0xbe, 0x6b, 0x74, 0x24, 0xbd, 0xd5, 0x3a, 0x91, 0x3d,
  0x02, 0x82, 0xce, 0xbe, 0xb0, 0x88, 0xb5, 0xbe, 0x6e, 0xfc, 0x91, 0x3d,
  0x6c, 0xbf, 0xb9, 0xbe, 0x63, 0xbf, 0xb5, 0xbe, 0x5f, 0xca, 0xe8, 0x3d,
  0x00, 0x00, 0x06, 0x00, 0x08, 0x00, 0x04, 0x00, 0x06, 0x00, 0x00, 0x00,
  0x04, 0x00, 0x00, 0x00, 0x04, 0x00, 0x00, 0x00, 0xd3, 0xc3, 0x95, 0x3d,
  0x08, 0xfb, 0xff, 0xff, 0x0c, 0xfb, 0xff, 0xff, 0x0f, 0x00, 0x00, 0x00,
  0x4d, 0x4c, 0x49, 0x52, 0x20, 0x43, 0x6f, 0x6e, 0x76, 0x65, 0x72, 0x74,
  0x65, 0x64, 0x2e, 0x00, 0x01, 0x00, 0x00, 0x00, 0x14, 0x00, 0x00, 0x00,
  0x00, 0x00, 0x0e, 0x00, 0x18, 0x00, 0x14, 0x00, 0x10, 0x00, 0x0c, 0x00,
  0x08, 0x00, 0x04, 0x00, 0x0e, 0x00, 0x00, 0x00, 0x14, 0x00, 0x00, 0x00,
  0x1c, 0x00, 0x00, 0x00, 0xd8, 0x00, 0x00, 0x00, 0xdc, 0x00, 0x00, 0x00,
  0xe0, 0x00, 0x00, 0x00, 0x04, 0x00, 0x00, 0x00, 0x6d, 0x61, 0x69, 0x6e,
  0x00, 0x00, 0x00, 0x00, 0x03, 0x00, 0x00, 0x00, 0x80, 0x00, 0x00, 0x00,
  0x38, 0x00, 0x00, 0x00, 0x04, 0x00, 0x00, 0x00, 0x9a, 0xff, 0xff, 0xff,
  0x10, 0x00, 0x00, 0x00, 0x00, 0x00, 0x00, 0x08, 0x0c, 0x00, 0x00, 0x00,
  0x10, 0x00, 0x00, 0x00, 0x84, 0xfb, 0xff, 0xff, 0x01, 0x00, 0x00, 0x00,
  0x09, 0x00, 0x00, 0x00, 0x03, 0x00, 0x00, 0x00, 0x08, 0x00, 0x00, 0x00,
  0x06, 0x00, 0x00, 0x00, 0x01, 0x00, 0x00, 0x00, 0xca, 0xff, 0xff, 0xff,
  0x10, 0x00, 0x00, 0x00, 0x00, 0x00, 0x00, 0x08, 0x10, 0x00, 0x00, 0x00,
  0x14, 0x00, 0x00, 0x00, 0xba, 0xff, 0xff, 0xff, 0x00, 0x00, 0x00, 0x01,
  0x01, 0x00, 0x00, 0x00, 0x08, 0x00, 0x00, 0x00, 0x03, 0x00, 0x00, 0x00,
  0x07, 0x00, 0x00, 0x00, 0x05, 0x00, 0x00, 0x00, 0x02, 0x00, 0x00, 0x00,
  0x00, 0x00, 0x0e, 0x00, 0x16, 0x00, 0x00, 0x00, 0x10, 0x00, 0x0c, 0x00,
  0x0b, 0x00, 0x04, 0x00, 0x0e, 0x00, 0x00, 0x00, 0x18, 0x00, 0x00, 0x00,
  0x00, 0x00, 0x00, 0x08, 0x18, 0x00, 0x00, 0x00, 0x1c, 0x00, 0x00, 0x00,
  0x00, 0x00, 0x06, 0x00, 0x08, 0x00, 0x07, 0x00, 0x06, 0x00, 0x00, 0x00,
  0x00, 0x00, 0x00, 0x01, 0x01, 0x00, 0x00, 0x00, 0x07, 0x00, 0x00, 0x00,
  0x03, 0x00, 0x00, 0x00, 0x00, 0x00, 0x00, 0x00, 0x04, 0x00, 0x00, 0x00,
  0x03, 0x00, 0x00, 0x00, 0x01, 0x00, 0x00, 0x00, 0x09, 0x00, 0x00, 0x00,
  0x01, 0x00, 0x00, 0x00, 0x00, 0x00, 0x00, 0x00, 0x0a, 0x00, 0x00, 0x00,
  0xa4, 0x03, 0x00, 0x00, 0x34, 0x03, 0x00, 0x00, 0xc4, 0x02, 0x00, 0x00,
  0x6c, 0x02, 0x00, 0x00, 0x20, 0x02, 0x00, 0x00, 0xd4, 0x01, 0x00, 0x00,
  0x88, 0x01, 0x00, 0x00, 0xf4, 0x00, 0x00, 0x00, 0x60, 0x00, 0x00, 0x00,
  0x04, 0x00, 0x00, 0x00, 0x9a, 0xfc, 0xff, 0xff, 0x00, 0x00, 0x00, 0x01,
  0x14, 0x00, 0x00, 0x00, 0x1c, 0x00, 0x00, 0x00, 0x1c, 0x00, 0x00, 0x00,
  0x0a, 0x00, 0x00, 0x00, 0x34, 0x00, 0x00, 0x00, 0x02, 0x00, 0x00, 0x00,
  0xff, 0xff, 0xff, 0xff, 0x01, 0x00, 0x00, 0x00, 0x84, 0xfc, 0xff, 0xff,
  0x19, 0x00, 0x00, 0x00, 0x53, 0x74, 0x61, 0x74, 0x65, 0x66, 0x75, 0x6c,
  0x50, 0x61, 0x72, 0x74, 0x69, 0x74, 0x69, 0x6f, 0x6e, 0x65, 0x64, 0x43,
  0x61, 0x6c, 0x6c, 0x3a, 0x30, 0x00, 0x00, 0x00, 0x02, 0x00, 0x00, 0x00,
  0x01, 0x00, 0x00, 0x00, 0x01, 0x00, 0x00, 0x00, 0xf2, 0xfc, 0xff, 0xff,
  0x00, 0x00, 0x00, 0x01, 0x14, 0x00, 0x00, 0x00, 0x1c, 0x00, 0x00, 0x00,
  0x1c, 0x00, 0x00, 0x00, 0x09, 0x00, 0x00, 0x00, 0x6c, 0x00, 0x00, 0x00,
  0x02, 0x00, 0x00, 0x00, 0xff, 0xff, 0xff, 0xff, 0x10, 0x00, 0x00, 0x00,
  0xdc, 0xfc, 0xff, 0xff, 0x52, 0x00, 0x00, 0x00, 0x73, 0x65, 0x71, 0x75,
  0x65, 0x6e, 0x74, 0x69, 0x61, 0x6c, 0x5f, 0x31, 0x2f, 0x64, 0x65, 0x6e,
  0x73, 0x65, 0x5f, 0x34, 0x2f, 0x4d, 0x61, 0x74, 0x4d, 0x75, 0x6c, 0x3b,
  0x73, 0x65, 0x71, 0x75, 0x65, 0x6e, 0x74, 0x69, 0x61, 0x6c, 0x5f, 0x31,
  0x2f, 0x64, 0x65, 0x6e, 0x73, 0x65, 0x5f, 0x34, 0x2f, 0x52, 0x65, 0x6c,
  0x75, 0x3b, 0x73, 0x65, 0x71, 0x75, 0x65, 0x6e, 0x74, 0x69, 0x61, 0x6c,
  0x5f, 0x31, 0x2f, 0x64, 0x65, 0x6e, 0x73, 0x65, 0x5f, 0x34, 0x2f, 0x42,
  0x69, 0x61, 0x73, 0x41, 0x64, 0x64, 0x00, 0x00, 0x02, 0x00, 0x00, 0x00,
  0x01, 0x00, 0x00, 0x00, 0x10, 0x00, 0x00, 0x00, 0x82, 0xfd, 0xff, 0xff,
  0x00, 0x00, 0x00, 0x01, 0x14, 0x00, 0x00, 0x00, 0x1c, 0x00, 0x00, 0x00,
  0x1c, 0x00, 0x00, 0x00, 0x08, 0x00, 0x00, 0x00, 0x6c, 0x00, 0x00, 0x00,
  0x02, 0x00, 0x00, 0x00, 0xff, 0xff, 0xff, 0xff, 0x10, 0x00, 0x00, 0x00,
  0x6c, 0xfd, 0xff, 0xff, 0x52, 0x00, 0x00, 0x00, 0x73, 0x65, 0x71, 0x75,
  0x65, 0x6e, 0x74, 0x69, 0x61, 0x6c, 0x5f, 0x31, 0x2f, 0x64, 0x65, 0x6e,
  0x73, 0x65, 0x5f, 0x33, 0x2f, 0x4d, 0x61, 0x74, 0x4d, 0x75, 0x6c, 0x3b,
  0x73, 0x65, 0x71, 0x75, 0x65, 0x6e, 0x74, 0x69, 0x61, 0x6c, 0x5f, 0x31,
  0x2f, 0x64, 0x65, 0x6e, 0x73, 0x65, 0x5f, 0x33, 0x2f, 0x52, 0x65, 0x6c,
  0x75, 0x3b, 0x73, 0x65, 0x71, 0x75, 0x65, 0x6e, 0x74, 0x69, 0x61, 0x6c,
  0x5f, 0x31, 0x2f, 0x64, 0x65, 0x6e, 0x73, 0x65, 0x5f, 0x33, 0x2f, 0x42,
  0x69, 0x61, 0x73, 0x41, 0x64, 0x64, 0x00, 0x00, 0x02, 0x00, 0x00, 0x00,
  0x01, 0x00, 0x00, 0x00, 0x10, 0x00, 0x00, 0x00, 0x7e, 0xfe, 0xff, 0xff,
  0x00, 0x00, 0x00, 0x01, 0x10, 0x00, 0x00, 0x00, 0x10, 0x00, 0x00, 0x00,
  0x07, 0x00, 0x00, 0x00, 0x28, 0x00, 0x00, 0x00, 0xec, 0xfd, 0xff, 0xff,
  0x1b, 0x00, 0x00, 0x00, 0x73, 0x65, 0x71, 0x75, 0x65, 0x6e, 0x74, 0x69,
  0x61, 0x6c, 0x5f, 0x31, 0x2f, 0x64, 0x65, 0x6e, 0x73, 0x65, 0x5f, 0x35,
  0x2f, 0x4d, 0x61, 0x74, 0x4d, 0x75, 0x6c, 0x00, 0x02, 0x00, 0x00, 0x00,
  0x01, 0x00, 0x00, 0x00, 0x10, 0x00, 0x00, 0x00, 0xc6, 0xfe, 0xff, 0xff,
  0x00, 0x00, 0x00, 0x01, 0x10, 0x00, 0x00, 0x00, 0x10, 0x00, 0x00, 0x00,
  0x06, 0x00, 0x00, 0x00, 0x28, 0x00, 0x00, 0x00, 0x34, 0xfe, 0xff, 0xff,
  0x1b, 0x00, 0x00, 0x00, 0x73, 0x65, 0x71, 0x75, 0x65, 0x6e, 0x74, 0x69,
  0x61, 0x6c, 0x5f, 0x31, 0x2f, 0x64, 0x65, 0x6e, 0x73, 0x65, 0x5f, 0x34,
  0x2f, 0x4d, 0x61, 0x74, 0x4d, 0x75, 0x6c, 0x00, 0x02, 0x00, 0x00, 0x00,
  0x10, 0x00, 0x00, 0x00, 0x10, 0x00, 0x00, 0x00, 0x0e, 0xff, 0xff, 0xff,
  0x00, 0x00, 0x00, 0x01, 0x10, 0x00, 0x00, 0x00, 0x10, 0x00, 0x00, 0x00,
  0x05, 0x00, 0x00, 0x00, 0x28, 0x00, 0x00, 0x00, 0x7c, 0xfe, 0xff, 0xff,
  0x1b, 0x00, 0x00, 0x00, 0x73, 0x65, 0x71, 0x75, 0x65, 0x6e, 0x74, 0x69,
  0x61, 0x6c, 0x5f, 0x31, 0x2f, 0x64, 0x65, 0x6e, 0x73, 0x65, 0x5f, 0x33,
  0x2f, 0x4d, 0x61, 0x74, 0x4d, 0x75, 0x6c, 0x00, 0x02, 0x00, 0x00, 0x00,
  0x10, 0x00, 0x00, 0x00, 0x01, 0x00, 0x00, 0x00, 0x56, 0xff, 0xff, 0xff,
  0x00, 0x00, 0x00, 0x01, 0x10, 0x00, 0x00, 0x00, 0x10, 0x00, 0x00, 0x00,
  0x04, 0x00, 0x00, 0x00, 0x38, 0x00, 0x00, 0x00, 0xc4, 0xfe, 0xff, 0xff,
  0x2b, 0x00, 0x00, 0x00, 0x73, 0x65, 0x71, 0x75, 0x65, 0x6e, 0x74, 0x69,
  0x61, 0x6c, 0x5f, 0x31, 0x2f, 0x64, 0x65, 0x6e, 0x73, 0x65, 0x5f, 0x33,
  0x2f, 0x42, 0x69, 0x61, 0x73, 0x41, 0x64, 0x64, 0x2f, 0x52, 0x65, 0x61,
  0x64, 0x56, 0x61, 0x72, 0x69, 0x61, 0x62, 0x6c, 0x65, 0x4f, 0x70, 0x00,
  0x01, 0x00, 0x00, 0x00, 0x10, 0x00, 0x00, 0x00, 0xaa, 0xff, 0xff, 0xff,
  0x00, 0x00, 0x00, 0x01, 0x10, 0x00, 0x00, 0x00, 0x10, 0x00, 0x00, 0x00,
  0x03, 0x00, 0x00, 0x00, 0x38, 0x00, 0x00, 0x00, 0x18, 0xff, 0xff, 0xff,
  0x2b, 0x00, 0x00, 0x00, 0x73, 0x65, 0x71, 0x75, 0x65, 0x6e, 0x74, 0x69,
  0x61, 0x6c, 0x5f, 0x31, 0x2f, 0x64, 0x65, 0x6e, 0x73, 0x65, 0x5f, 0x34,
  0x2f, 0x42, 0x69, 0x61, 0x73, 0x41, 0x64, 0x64, 0x2f, 0x52, 0x65, 0x61,
  0x64, 0x56, 0x61, 0x72, 0x69, 0x61, 0x62, 0x6c, 0x65, 0x4f, 0x70, 0x00,
  0x01, 0x00, 0x00, 0x00, 0x10, 0x00, 0x00, 0x00, 0x00, 0x00, 0x16, 0x00,
  0x18, 0x00, 0x14, 0x00, 0x00, 0x00, 0x10, 0x00, 0x0c, 0x00, 0x08, 0x00,
  0x00, 0x00, 0x00, 0x00, 0x00, 0x00, 0x07, 0x00, 0x16, 0x00, 0x00, 0x00,
  0x00, 0x00, 0x00, 0x01, 0x10, 0x00, 0x00, 0x00, 0x10, 0x00, 0x00, 0x00,
  0x02, 0x00, 0x00, 0x00, 0x38, 0x00, 0x00, 0x00, 0x84, 0xff, 0xff, 0xff,
  0x2b, 0x00, 0x00, 0x00, 0x73, 0x65, 0x71, 0x75, 0x65, 0x6e, 0x74, 0x69,
  0x61, 0x6c, 0x5f, 0x31, 0x2f, 0x64, 0x65, 0x6e, 0x73, 0x65, 0x5f, 0x35,
  0x2f, 0x42, 0x69, 0x61, 0x73, 0x41, 0x64, 0x64, 0x2f, 0x52, 0x65, 0x61,
  0x64, 0x56, 0x61, 0x72, 0x69, 0x61, 0x62, 0x6c, 0x65, 0x4f, 0x70, 0x00,
  0x01, 0x00, 0x00, 0x00, 0x01, 0x00, 0x00, 0x00, 0x00, 0x00, 0x16, 0x00,
  0x1c, 0x00, 0x18, 0x00, 0x00, 0x00, 0x14, 0x00, 0x10, 0x00, 0x0c, 0x00,
  0x00, 0x00, 0x00, 0x00, 0x08, 0x00, 0x07, 0x00, 0x16, 0x00, 0x00, 0x00,
  0x00, 0x00, 0x00, 0x01, 0x14, 0x00, 0x00, 0x00, 0x20, 0x00, 0x00, 0x00,
  0x20, 0x00, 0x00, 0x00, 0x01, 0x00, 0x00, 0x00, 0x3c, 0x00, 0x00, 0x00,
  0x02, 0x00, 0x00, 0x00, 0xff, 0xff, 0xff, 0xff, 0x01, 0x00, 0x00, 0x00,
  0x04, 0x00, 0x04, 0x00, 0x04, 0x00, 0x00, 0x00, 0x1f, 0x00, 0x00, 0x00,
  0x73, 0x65, 0x72, 0x76, 0x69, 0x6e, 0x67, 0x5f, 0x64, 0x65, 0x66, 0x61,
  0x75, 0x6c, 0x74, 0x5f, 0x64, 0x65, 0x6e, 0x73, 0x65, 0x5f, 0x33, 0x5f,
  0x69, 0x6e, 0x70, 0x75, 0x74, 0x3a, 0x30, 0x00, 0x02, 0x00, 0x00, 0x00,
  0x01, 0x00, 0x00, 0x00, 0x01, 0x00, 0x00, 0x00, 0x01, 0x00, 0x00, 0x00,
  0x10, 0x00, 0x00, 0x00, 0x0c, 0x00, 0x0c, 0x00, 0x0b, 0x00, 0x00, 0x00,
  0x00, 0x00, 0x04, 0x00, 0x0c, 0x00, 0x00, 0x00, 0x09, 0x00, 0x00, 0x00,
  0x00, 0x00, 0x00, 0x09
};

#endif //SINE_MODEL_H