
// This is a TensorFlow Lite model file that has been converted into a C data
// array using the tensorflow.lite.util.convert_bytes_to_c_source() function.
// This form is useful for compiling into a binary for devices that don't have a
// file system.


// We need to keep the data array aligned on some architectures.
#ifdef __has_attribute
#define HAVE_ATTRIBUTE(x) __has_attribute(x)
#else
#define HAVE_ATTRIBUTE(x) 0
#endif
#if HAVE_ATTRIBUTE(aligned) || (defined(__GNUC__) && !defined(__clang__))
#define DATA_ALIGN_ATTRIBUTE __attribute__((aligned(4)))
#else
#define DATA_ALIGN_ATTRIBUTE
#endif

const unsigned char sine_model[] DATA_ALIGN_ATTRIBUTE = {
    0x1c, 0x00, 0x00, 0x00, 0x54, 0x46, 0x4c, 0x33, 0x14, 0x00, 0x20, 0x00, 0x1c,
    0x00, 0x18, 0x00, 0x14, 0x00, 0x10, 0x00, 0x0c, 0x00, 0x00, 0x00, 0x08, 0x00,
    0x04, 0x00, 0x14, 0x00, 0x00, 0x00, 0x1c, 0x00, 0x00, 0x00, 0x90, 0x00, 0x00,
    0x00, 0xe8, 0x00, 0x00, 0x00, 0x04, 0x07, 0x00, 0x00, 0x14, 0x07, 0x00, 0x00,
    0x0c, 0x0c, 0x00, 0x00, 0x03, 0x00, 0x00, 0x00, 0x01, 0x00, 0x00, 0x00, 0x10,
    0x00, 0x00, 0x00, 0x00, 0x00, 0x0a, 0x00, 0x10, 0x00, 0x0c, 0x00, 0x08, 0x00,
    0x04, 0x00, 0x0a, 0x00, 0x00, 0x00, 0x0c, 0x00, 0x00, 0x00, 0x1c, 0x00, 0x00,
    0x00, 0x38, 0x00, 0x00, 0x00, 0x0f, 0x00, 0x00, 0x00, 0x73, 0x65, 0x72, 0x76,
    0x69, 0x6e, 0x67, 0x5f, 0x64, 0x65, 0x66, 0x61, 0x75, 0x6c, 0x74, 0x00, 0x01,
    0x00, 0x00, 0x00, 0x04, 0x00, 0x00, 0x00, 0x98, 0xff, 0xff, 0xff, 0x09, 0x00,
    0x00, 0x00, 0x04, 0x00, 0x00, 0x00, 0x07, 0x00, 0x00, 0x00, 0x64, 0x65, 0x6e,
    0x73, 0x65, 0x5f, 0x32, 0x00, 0x01, 0x00, 0x00, 0x00, 0x04, 0x00, 0x00, 0x00,
    0xc6, 0xf9, 0xff, 0xff, 0x04, 0x00, 0x00, 0x00, 0x0b, 0x00, 0x00, 0x00, 0x64,
    0x65, 0x6e, 0x73, 0x65, 0x5f, 0x69, 0x6e, 0x70, 0x75, 0x74, 0x00, 0x02, 0x00,
    0x00, 0x00, 0x34, 0x00, 0x00, 0x00, 0x04, 0x00, 0x00, 0x00, 0xdc, 0xff, 0xff,
    0xff, 0x0c, 0x00, 0x00, 0x00, 0x04, 0x00, 0x00, 0x00, 0x13, 0x00, 0x00, 0x00,
    0x43, 0x4f, 0x4e, 0x56, 0x45, 0x52, 0x53, 0x49, 0x4f, 0x4e, 0x5f, 0x4d, 0x45,
    0x54, 0x41, 0x44, 0x41, 0x54, 0x41, 0x00, 0x08, 0x00, 0x0c, 0x00, 0x08, 0x00,
    0x04, 0x00, 0x08, 0x00, 0x00, 0x00, 0x0b, 0x00, 0x00, 0x00, 0x04, 0x00, 0x00,
    0x00, 0x13, 0x00, 0x00, 0x00, 0x6d, 0x69, 0x6e, 0x5f, 0x72, 0x75, 0x6e, 0x74,
    0x69, 0x6d, 0x65, 0x5f, 0x76, 0x65, 0x72, 0x73, 0x69, 0x6f, 0x6e, 0x00, 0x0d,
    0x00, 0x00, 0x00, 0x18, 0x06, 0x00, 0x00, 0x10, 0x06, 0x00, 0x00, 0xc0, 0x05,
    0x00, 0x00, 0xa4, 0x05, 0x00, 0x00, 0x54, 0x05, 0x00, 0x00, 0x04, 0x05, 0x00,
    0x00, 0xf4, 0x00, 0x00, 0x00, 0xa4, 0x00, 0x00, 0x00, 0x9c, 0x00, 0x00, 0x00,
    0x94, 0x00, 0x00, 0x00, 0x8c, 0x00, 0x00, 0x00, 0x6c, 0x00, 0x00, 0x00, 0x04,
    0x00, 0x00, 0x00, 0x72, 0xfa, 0xff, 0xff, 0x04, 0x00, 0x00, 0x00, 0x58, 0x00,
    0x00, 0x00, 0x0c, 0x00, 0x00, 0x00, 0x08, 0x00, 0x0e, 0x00, 0x08, 0x00, 0x04,
    0x00, 0x08, 0x00, 0x00, 0x00, 0x10, 0x00, 0x00, 0x00, 0x28, 0x00, 0x00, 0x00,
    0x00, 0x00, 0x06, 0x00, 0x08, 0x00, 0x04, 0x00, 0x06, 0x00, 0x00, 0x00, 0x04,
    0x00, 0x00, 0x00, 0x01, 0x00, 0x00, 0x00, 0xea, 0x03, 0x00, 0x00, 0x00, 0x00,
    0x0a, 0x00, 0x10, 0x00, 0x0c, 0x00, 0x08, 0x00, 0x04, 0x00, 0x0a, 0x00, 0x00,
    0x00, 0x02, 0x00, 0x00, 0x00, 0x02, 0x00, 0x00, 0x00, 0x04, 0x00, 0x00, 0x00,
    0x06, 0x00, 0x00, 0x00, 0x32, 0x2e, 0x31, 0x32, 0x2e, 0x30, 0x00, 0x00, 0xd6,
    0xfa, 0xff, 0xff, 0x04, 0x00, 0x00, 0x00, 0x10, 0x00, 0x00, 0x00, 0x31, 0x2e,
    0x35, 0x2e, 0x30, 0x00, 0x00, 0x00, 0x00, 0x00, 0x00, 0x00, 0x00, 0x00, 0x00,
    0x00, 0xc0, 0xf5, 0xff, 0xff, 0xc4, 0xf5, 0xff, 0xff, 0xc8, 0xf5, 0xff, 0xff,
    0xfe, 0xfa, 0xff, 0xff, 0x04, 0x00, 0x00, 0x00, 0x40, 0x00, 0x00, 0x00, 0xd3,
    0xaa, 0x90, 0xbf, 0x2a, 0xf5, 0x85, 0x3e, 0xeb, 0x3d, 0xec, 0xbe, 0xd7, 0xab,
    0x31, 0x3f, 0xad, 0x99, 0x6f, 0x3f, 0xf2, 0x90, 0x07, 0xbe, 0xd8, 0x65, 0x37,
    0x3f, 0xa0, 0x60, 0x1e, 0x3e, 0xcb, 0xe5, 0x31, 0x3e, 0x29, 0xf4, 0x64, 0x3f,
    0xcd, 0x85, 0x84, 0xbe, 0xf1, 0x1c, 0x9c, 0x3f, 0x13, 0xba, 0x0e, 0x40, 0x14,
    0x3a, 0xc3, 0xbd, 0x2b, 0x4b, 0xeb, 0x3e, 0xa8, 0xf7, 0x6e, 0x3f, 0x4a, 0xfb,
    0xff, 0xff, 0x04, 0x00, 0x00, 0x00, 0x00, 0x04, 0x00, 0x00, 0x4a, 0x8a, 0x0f,
    0x3e, 0x00, 0xc7, 0xf6, 0xba, 0x85, 0x39, 0x86, 0x3e, 0x5a, 0x7d, 0x7a, 0x3e,
    0x24, 0xf0, 0x3c, 0xbe, 0xd2, 0x34, 0x61, 0x3e, 0x41, 0xb5, 0x6f, 0xbe, 0x0c,
    0xad, 0x1c, 0xbe, 0x34, 0xfa, 0xbd, 0x3d, 0xc8, 0x50, 0x01, 0x3d, 0xf9, 0x77,
    0x40, 0xbe, 0xd2, 0x6b, 0x02, 0x3e, 0x9a, 0xb0, 0xec, 0xbe, 0x0d, 0x8b, 0xcf,
    0xbe, 0xad, 0x94, 0x85, 0x3e, 0xc9, 0xa3, 0xb8, 0xbe, 0x80, 0x34, 0x36, 0x3c,
    0x42, 0x8a, 0x2b, 0x3e, 0xbd, 0x16, 0x9d, 0x3e, 0x93, 0xee, 0x66, 0xbe, 0xdc,
    0x1f, 0xa3, 0x3d, 0x96, 0x63, 0xb4, 0xbe, 0xf8, 0x46, 0xbf, 0xbd, 0xa8, 0xbe,
    0x94, 0xbd, 0xc3, 0xc0, 0xd2, 0x3e, 0x82, 0x79, 0x72, 0xbe, 0x39, 0x62, 0xce,
    0x3e, 0x57, 0xb0, 0xc1, 0x3e, 0xbe, 0x66, 0x52, 0x3e, 0x1e, 0x6d, 0x6e, 0xbe,
    0xc4, 0x66, 0xb7, 0xbe, 0xb7, 0x39, 0xd5, 0xbe, 0x10, 0xf5, 0x82, 0xbe, 0xf4,
    0xc2, 0xe6, 0xbd, 0x9a, 0x43, 0x86, 0xbe, 0x4d, 0xd8, 0x5c, 0xbe, 0x46, 0xbe,
    0x1d, 0xbe, 0x73, 0x72, 0x94, 0x3e, 0xac, 0xb9, 0x4b, 0xbe, 0xea, 0xb8, 0x78,
    0x3e, 0xc4, 0x78, 0x0b, 0xbe, 0x45, 0xdf, 0xc7, 0xbe, 0x6c, 0xa9, 0xc5, 0x3d,
    0xe4, 0xdb, 0x95, 0x3d, 0x00, 0x79, 0xb5, 0x3a, 0x92, 0x93, 0x4e, 0xbe, 0xb2,
    0x6f, 0x43, 0x3e, 0xc4, 0x2e, 0x7b, 0xbe, 0x01, 0xa1, 0x94, 0x3e, 0xb5, 0x91,
    0xc5, 0x3e, 0x70, 0xad, 0x86, 0xbd, 0x1b, 0x1b, 0x6c, 0x3e, 0xe0, 0xbe, 0x57,
    0xbd, 0x8d, 0x32, 0xd9, 0x3e, 0xbf, 0x10, 0xd7, 0xbe, 0xa8, 0xff, 0x8c, 0xbe,
    0xb0, 0x24, 0xc1, 0xbd, 0x0e, 0x7c, 0xbf, 0xbe, 0x36, 0xb2, 0x30, 0x3e, 0xe1,
    0x38, 0x9a, 0xbe, 0xfe, 0x72, 0xdc, 0xbe, 0x83, 0xa6, 0x90, 0x3e, 0x1c, 0x92,
    0xd4, 0xbd, 0xab, 0x2a, 0xb8, 0x3e, 0x31, 0x4d, 0x83, 0xbe, 0xa0, 0x21, 0xf1,
    0xbc, 0x7e, 0x96, 0x2e, 0x3e, 0x3c, 0x2c, 0x8f, 0xbe, 0x60, 0xf7, 0x86, 0xbc,
    0x39, 0xab, 0x9d, 0x3e, 0x16, 0xb1, 0x9b, 0xbe, 0x9a, 0xc1, 0x20, 0x3e, 0x26,
    0x7e, 0x6d, 0xbe, 0x45, 0x16, 0xb2, 0x3e, 0x13, 0xa3, 0xa9, 0x3e, 0x79, 0x00,
    0xca, 0xbe, 0x84, 0xcd, 0xbc, 0xbe, 0x9b, 0x73, 0x85, 0x3e, 0x52, 0x61, 0x2d,
    0x3e, 0x76, 0x46, 0x0a, 0x3f, 0x05, 0x1b, 0xcf, 0x3e, 0x23, 0xeb, 0x73, 0xbe,
    0x94, 0x03, 0xf5, 0x3d, 0x42, 0x54, 0x56, 0xbe, 0x09, 0xd4, 0xc6, 0x3e, 0x35,
    0xeb, 0x9c, 0x3e, 0xed, 0x3c, 0x8d, 0xbe, 0x34, 0xd5, 0xde, 0xbd, 0x98, 0x79,
    0x2a, 0xbe, 0xb4, 0xdc, 0x8c, 0xbd, 0x02, 0x74, 0x49, 0x3e, 0xff, 0x3d, 0xcb,
    0x3e, 0x51, 0x6b, 0xb2, 0x3e, 0x9a, 0x29, 0x0b, 0x3e, 0x98, 0x74, 0x22, 0x3d,
    0xc0, 0x6f, 0x01, 0xbd, 0xcc, 0x03, 0xe2, 0x3d, 0xc6, 0x68, 0xd4, 0xbe, 0x6a,
    0xd9, 0xca, 0xbe, 0x7d, 0x11, 0x1d, 0x3e, 0x32, 0xd1, 0x8e, 0xbe, 0x34, 0xed,
    0xcb, 0x3d, 0xfa, 0x3f, 0xdc, 0xbe, 0x9a, 0x21, 0x0d, 0xbe, 0x8f, 0xda, 0xba,
    0x3e, 0x18, 0xc8, 0x69, 0x3d, 0x02, 0x98, 0x97, 0xbe, 0x50, 0x33, 0x1c, 0xbe,
    0x17, 0x37, 0x19, 0xbe, 0x40, 0x74, 0xc0, 0xbe, 0x4e, 0x84, 0x31, 0xbe, 0xf7,
    0x1f, 0x8c, 0x3e, 0x0e, 0x11, 0x15, 0x3e, 0xe7, 0x0b, 0xbf, 0x3e, 0xfc, 0x19,
    0x80, 0xbe, 0xbe, 0xae, 0x1f, 0xbe, 0x0a, 0x01, 0x1b, 0xbe, 0x20, 0x4c, 0x23,
    0xbd, 0x50, 0xb0, 0x69, 0x3e, 0x58, 0xf7, 0xb5, 0xbd, 0x04, 0xa1, 0xa4, 0xbd,
    0x0a, 0xbc, 0x0c, 0x3e, 0x23, 0x11, 0x9d, 0x3e, 0xd4, 0x52, 0x21, 0xbe, 0xc0,
    0x53, 0xc3, 0xbd, 0xa4, 0x5b, 0xa7, 0x3d, 0x25, 0x09, 0xaf, 0x3e, 0xd5, 0x5c,
    0x91, 0xbe, 0xa9, 0x3f, 0x7a, 0xbe, 0x62, 0x83, 0xa9, 0xbe, 0x50, 0xdc, 0xcc,
    0x3c, 0x49, 0xa3, 0xe2, 0xbe, 0x40, 0x71, 0xd8, 0xbe, 0x76, 0x34, 0x07, 0x3e,
    0xf5, 0x0d, 0x0a, 0xbe, 0x40, 0xbf, 0xea, 0xbb, 0xe4, 0xf1, 0xb3, 0xbd, 0x11,
    0xa8, 0xa9, 0xbe, 0x8e, 0x31, 0xae, 0xbe, 0x99, 0x65, 0xd8, 0x3e, 0xa8, 0x16,
    0xcd, 0x3e, 0x38, 0xf7, 0x5f, 0xbd, 0x00, 0xa9, 0xa8, 0x3c, 0x3e, 0x83, 0x03,
    0x3d, 0xee, 0x8e, 0x08, 0xbe, 0x90, 0x8e, 0xb1, 0xbe, 0x3d, 0xad, 0xa5, 0x3e,
    0xe7, 0x45, 0xd9, 0x3e, 0x86, 0x0d, 0x75, 0x3e, 0x6f, 0x0e, 0x9a, 0x3e, 0xdd,
    0x39, 0x91, 0xbe, 0xc6, 0xc7, 0x35, 0x3e, 0x59, 0x4a, 0xdd, 0xbe, 0x73, 0xf0,
    0xaa, 0x3e, 0xe0, 0x4a, 0xb1, 0xbc, 0xaf, 0x84, 0xaf, 0x3e, 0xde, 0xb3, 0x0c,
    0xbf, 0x29, 0x77, 0xb5, 0x3e, 0xf0, 0x72, 0xa3, 0xbe, 0x04, 0x00, 0x17, 0x3e,
    0x4b, 0x1b, 0xab, 0xbe, 0xb8, 0xff, 0x74, 0xbd, 0xfd, 0x76, 0xd3, 0xbe, 0xe8,
    0x4c, 0x25, 0x3f, 0xe5, 0x92, 0xc7, 0x3e, 0x4c, 0x93, 0xe0, 0x3d, 0xc1, 0xb7,
    0xa3, 0x3e, 0x3b, 0x01, 0x4f, 0xbe, 0xe0, 0x16, 0x4c, 0xbc, 0x12, 0x83, 0x4d,
    0xbe, 0x78, 0xfd, 0x06, 0xbe, 0x10, 0xe5, 0x72, 0xbd, 0xa2, 0xeb, 0x05, 0x3f,
    0xf3, 0x79, 0x8f, 0x3e, 0x79, 0xd4, 0xc2, 0xbe, 0x05, 0x53, 0x28, 0x3e, 0x33,
    0x7c, 0xbb, 0x3e, 0x10, 0xdf, 0x4d, 0x3d, 0x4c, 0xa4, 0x8e, 0x3d, 0xd3, 0x42,
    0x80, 0xbe, 0xe9, 0xd7, 0x89, 0xbe, 0x80, 0x5d, 0xf0, 0xbc, 0x85, 0xd5, 0x45,
    0xbe, 0x80, 0x30, 0x9f, 0xbd, 0x2e, 0xa6, 0x3f, 0xbe, 0x2d, 0xe0, 0xb8, 0x3e,
    0xfa, 0x1f, 0x7f, 0x3e, 0x33, 0x8b, 0x93, 0x3e, 0xde, 0x3f, 0x13, 0xbf, 0x32,
    0x7b, 0x15, 0x3e, 0xc1, 0x0e, 0xd5, 0x3e, 0x6d, 0x56, 0x26, 0x3f, 0xa9, 0x51,
    0xa0, 0x3e, 0x20, 0x6f, 0xa6, 0xbe, 0xd5, 0x81, 0xd4, 0x3e, 0xbe, 0xfa, 0x1b,
    0xbf, 0x09, 0xad, 0x8d, 0xbe, 0xe2, 0x90, 0x53, 0x3e, 0x69, 0x43, 0x28, 0x3f,
    0x50, 0x1c, 0x2a, 0x3d, 0xb4, 0xab, 0xbd, 0x3d, 0x7a, 0xb9, 0x48, 0x3e, 0xf3,
    0xaf, 0xb2, 0x3e, 0xa0, 0xe8, 0x15, 0x3d, 0x94, 0x66, 0x20, 0x3f, 0xbc, 0xaf,
    0xa0, 0x3d, 0x20, 0x7a, 0x41, 0xbc, 0x95, 0x5b, 0xa7, 0xbe, 0xa6, 0x39, 0x39,
    0x3e, 0x4d, 0xa7, 0xd8, 0x3e, 0xf0, 0xba, 0x32, 0xbe, 0x65, 0xf1, 0xae, 0xbe,
    0x66, 0x29, 0x9a, 0xbe, 0xf3, 0x4a, 0x98, 0x3e, 0x12, 0x0d, 0x57, 0xbe, 0xde,
    0x46, 0x52, 0xbe, 0xe1, 0x3b, 0x97, 0x3e, 0x74, 0x85, 0xbe, 0xbe, 0x74, 0x5a,
    0xfc, 0x3d, 0x6c, 0x73, 0x1d, 0xbe, 0x5f, 0xfa, 0x9f, 0x3e, 0xae, 0x7a, 0x15,
    0x3e, 0x11, 0x88, 0x88, 0x3e, 0xde, 0x49, 0x81, 0xbe, 0x09, 0xaf, 0xae, 0x3e,
    0xac, 0x38, 0xc4, 0xbd, 0x9f, 0xec, 0xc1, 0x3e, 0x7e, 0x17, 0x66, 0x3e, 0x50,
    0x1e, 0xb6, 0xbd, 0xea, 0x2b, 0x3e, 0x3e, 0x32, 0x4b, 0xa6, 0xbe, 0x84, 0x4a,
    0xe9, 0xbd, 0x10, 0xc4, 0xb4, 0xbc, 0xef, 0x89, 0xbc, 0x3e, 0x35, 0x26, 0x9a,
    0x3e, 0x93, 0x6e, 0x92, 0x3e, 0xf9, 0x63, 0xd2, 0xbe, 0x42, 0x73, 0x41, 0x3e,
    0xa8, 0x7a, 0x17, 0xbd, 0x24, 0x1b, 0xc2, 0xbe, 0x40, 0x92, 0x0f, 0xbe, 0x7e,
    0xdc, 0x8b, 0xbe, 0x61, 0x5d, 0xcc, 0xbe, 0xfe, 0x6d, 0x86, 0x3e, 0xbb, 0x66,
    0xbd, 0x3e, 0x66, 0x5f, 0x6e, 0x3e, 0x27, 0x56, 0x81, 0xbe, 0xfd, 0x4e, 0xaf,
    0x3e, 0x8e, 0xfa, 0x16, 0x3e, 0x5b, 0xeb, 0x84, 0xbe, 0xd0, 0x4b, 0x6f, 0x3d,
    0x69, 0xac, 0xca, 0x3e, 0xae, 0x19, 0x51, 0xbf, 0xb0, 0xd6, 0x8b, 0xbc, 0x7d,
    0xa2, 0x87, 0x3e, 0xcd, 0x8d, 0xc0, 0x3e, 0x56, 0xff, 0xff, 0xff, 0x04, 0x00,
    0x00, 0x00, 0x40, 0x00, 0x00, 0x00, 0x7c, 0xb3, 0xf8, 0xbe, 0xe9, 0x53, 0xbf,
    0xbe, 0x88, 0xe9, 0xbe, 0xbe, 0xd9, 0x49, 0x86, 0x3d, 0x26, 0x48, 0x46, 0xbe,
    0x04, 0xfa, 0xd3, 0xbe, 0x4c, 0xbe, 0xf2, 0x3e, 0x2c, 0x35, 0x19, 0xbe, 0x80,
    0x3c, 0x2e, 0xbe, 0x2a, 0xbf, 0xde, 0xbe, 0x00, 0x90, 0x45, 0xbb, 0xb8, 0xe0,
    0xb6, 0xbe, 0x29, 0xf7, 0xa3, 0x3e, 0x80, 0x48, 0x5e, 0xbd, 0x76, 0x15, 0x1e,
    0xbe, 0xdc, 0xaa, 0x9e, 0x3e, 0xa2, 0xff, 0xff, 0xff, 0x04, 0x00, 0x00, 0x00,
    0x40, 0x00, 0x00, 0x00, 0x00, 0x00, 0x00, 0x00, 0x00, 0x00, 0x00, 0x00, 0x00,
    0x00, 0x00, 0x00, 0x7d, 0x23, 0x45, 0x3f, 0x00, 0x00, 0x00, 0x00, 0x00, 0x00,
    0x00, 0x00, 0x54, 0x64, 0x0b, 0xbf, 0x00, 0x00, 0x00, 0x00, 0x00, 0x00, 0x00,
    0x00, 0x00, 0x00, 0x00, 0x00, 0x00, 0x00, 0x00, 0x00, 0x00, 0x00, 0x00, 0x00,
    0x21, 0x8c, 0x13, 0xbf, 0x00, 0x00, 0x00, 0x00, 0x00, 0x00, 0x00, 0x00, 0x69,
    0x3f, 0x41, 0x3e, 0xee, 0xff, 0xff, 0xff, 0x04, 0x00, 0x00, 0x00, 0x04, 0x00,
    0x00, 0x00, 0x62, 0x16, 0xd6, 0xbe, 0x00, 0x00, 0x06, 0x00, 0x08, 0x00, 0x04,
    0x00, 0x06, 0x00, 0x00, 0x00, 0x04, 0x00, 0x00, 0x00, 0x40, 0x00, 0x00, 0x00,
    0x3a, 0xb5, 0xd7, 0x3e, 0x00, 0x00, 0x00, 0x00, 0x00, 0x00, 0x00, 0x00, 0xf3,
    0xf8, 0xff, 0x3d, 0xf8, 0x33, 0x01, 0x3e, 0x00, 0x00, 0x00, 0x00, 0xc3, 0x3e,
    0x11, 0x3e, 0x5e, 0x08, 0x87, 0xbd, 0x6c, 0xca, 0xf1, 0xbc, 0xb2, 0x62, 0x04,
    0x3e, 0xea, 0x2b, 0xd8, 0x3e, 0xc1, 0xb6, 0xea, 0x3d, 0xd4, 0x31, 0x17, 0xbf,
    0x00, 0x00, 0x00, 0x00, 0x22, 0x08, 0xd4, 0xbd, 0x59, 0x72, 0xe9, 0x3d, 0x20,
    0xfb, 0xff, 0xff, 0x24, 0xfb, 0xff, 0xff, 0x0f, 0x00, 0x00, 0x00, 0x4d, 0x4c,
    0x49, 0x52, 0x20, 0x43, 0x6f, 0x6e, 0x76, 0x65, 0x72, 0x74, 0x65, 0x64, 0x2e,
    0x00, 0x01, 0x00, 0x00, 0x00, 0x14, 0x00, 0x00, 0x00, 0x00, 0x00, 0x0e, 0x00,
    0x18, 0x00, 0x14, 0x00, 0x10, 0x00, 0x0c, 0x00, 0x08, 0x00, 0x04, 0x00, 0x0e,
    0x00, 0x00, 0x00, 0x14, 0x00, 0x00, 0x00, 0x1c, 0x00, 0x00, 0x00, 0xd8, 0x00,
    0x00, 0x00, 0xdc, 0x00, 0x00, 0x00, 0xe0, 0x00, 0x00, 0x00, 0x04, 0x00, 0x00,
    0x00, 0x6d, 0x61, 0x69, 0x6e, 0x00, 0x00, 0x00, 0x00, 0x03, 0x00, 0x00, 0x00,
    0x80, 0x00, 0x00, 0x00, 0x38, 0x00, 0x00, 0x00, 0x04, 0x00, 0x00, 0x00, 0x9a,
    0xff, 0xff, 0xff, 0x10, 0x00, 0x00, 0x00, 0x00, 0x00, 0x00, 0x08, 0x0c, 0x00,
    0x00, 0x00, 0x10, 0x00, 0x00, 0x00, 0x9c, 0xfb, 0xff, 0xff, 0x01, 0x00, 0x00,
    0x00, 0x09, 0x00, 0x00, 0x00, 0x03, 0x00, 0x00, 0x00, 0x08, 0x00, 0x00, 0x00,
    0x06, 0x00, 0x00, 0x00, 0x02, 0x00, 0x00, 0x00, 0xca, 0xff, 0xff, 0xff, 0x10,
    0x00, 0x00, 0x00, 0x00, 0x00, 0x00, 0x08, 0x10, 0x00, 0x00, 0x00, 0x14, 0x00,
    0x00, 0x00, 0xba, 0xff, 0xff, 0xff, 0x00, 0x00, 0x00, 0x01, 0x01, 0x00, 0x00,
    0x00, 0x08, 0x00, 0x00, 0x00, 0x03, 0x00, 0x00, 0x00, 0x07, 0x00, 0x00, 0x00,
    0x05, 0x00, 0x00, 0x00, 0x01, 0x00, 0x00, 0x00, 0x00, 0x00, 0x0e, 0x00, 0x16,
    0x00, 0x00, 0x00, 0x10, 0x00, 0x0c, 0x00, 0x0b, 0x00, 0x04, 0x00, 0x0e, 0x00,
    0x00, 0x00, 0x18, 0x00, 0x00, 0x00, 0x00, 0x00, 0x00, 0x08, 0x18, 0x00, 0x00,
    0x00, 0x1c, 0x00, 0x00, 0x00, 0x00, 0x00, 0x06, 0x00, 0x08, 0x00, 0x07, 0x00,
    0x06, 0x00, 0x00, 0x00, 0x00, 0x00, 0x00, 0x01, 0x01, 0x00, 0x00, 0x00, 0x07,
    0x00, 0x00, 0x00, 0x03, 0x00, 0x00, 0x00, 0x00, 0x00, 0x00, 0x00, 0x04, 0x00,
    0x00, 0x00, 0x03, 0x00, 0x00, 0x00, 0x01, 0x00, 0x00, 0x00, 0x09, 0x00, 0x00,
    0x00, 0x01, 0x00, 0x00, 0x00, 0x00, 0x00, 0x00, 0x00, 0x0a, 0x00, 0x00, 0x00,
    0x8c, 0x03, 0x00, 0x00, 0x1c, 0x03, 0x00, 0x00, 0xac, 0x02, 0x00, 0x00, 0x58,
    0x02, 0x00, 0x00, 0x10, 0x02, 0x00, 0x00, 0xc4, 0x01, 0x00, 0x00, 0x78, 0x01,
    0x00, 0x00, 0xf0, 0x00, 0x00, 0x00, 0x60, 0x00, 0x00, 0x00, 0x04, 0x00, 0x00,
    0x00, 0xb2, 0xfc, 0xff, 0xff, 0x00, 0x00, 0x00, 0x01, 0x14, 0x00, 0x00, 0x00,
    0x1c, 0x00, 0x00, 0x00, 0x1c, 0x00, 0x00, 0x00, 0x0a, 0x00, 0x00, 0x00, 0x34,
    0x00, 0x00, 0x00, 0x02, 0x00, 0x00, 0x00, 0xff, 0xff, 0xff, 0xff, 0x01, 0x00,
    0x00, 0x00, 0x9c, 0xfc, 0xff, 0xff, 0x19, 0x00, 0x00, 0x00, 0x53, 0x74, 0x61,
    0x74, 0x65, 0x66, 0x75, 0x6c, 0x50, 0x61, 0x72, 0x74, 0x69, 0x74, 0x69, 0x6f,
    0x6e, 0x65, 0x64, 0x43, 0x61, 0x6c, 0x6c, 0x3a, 0x30, 0x00, 0x00, 0x00, 0x02,
    0x00, 0x00, 0x00, 0x01, 0x00, 0x00, 0x00, 0x01, 0x00, 0x00, 0x00, 0x0a, 0xfd,
    0xff, 0xff, 0x00, 0x00, 0x00, 0x01, 0x14, 0x00, 0x00, 0x00, 0x1c, 0x00, 0x00,
    0x00, 0x1c, 0x00, 0x00, 0x00, 0x09, 0x00, 0x00, 0x00, 0x68, 0x00, 0x00, 0x00,
    0x02, 0x00, 0x00, 0x00, 0xff, 0xff, 0xff, 0xff, 0x10, 0x00, 0x00, 0x00, 0xf4,
    0xfc, 0xff, 0xff, 0x4c, 0x00, 0x00, 0x00, 0x73, 0x65, 0x71, 0x75, 0x65, 0x6e,
    0x74, 0x69, 0x61, 0x6c, 0x2f, 0x64, 0x65, 0x6e, 0x73, 0x65, 0x5f, 0x31, 0x2f,
    0x4d, 0x61, 0x74, 0x4d, 0x75, 0x6c, 0x3b, 0x73, 0x65, 0x71, 0x75, 0x65, 0x6e,
    0x74, 0x69, 0x61, 0x6c, 0x2f, 0x64, 0x65, 0x6e, 0x73, 0x65, 0x5f, 0x31, 0x2f,
    0x52, 0x65, 0x6c, 0x75, 0x3b, 0x73, 0x65, 0x71, 0x75, 0x65, 0x6e, 0x74, 0x69,
    0x61, 0x6c, 0x2f, 0x64, 0x65, 0x6e, 0x73, 0x65, 0x5f, 0x31, 0x2f, 0x42, 0x69,
    0x61, 0x73, 0x41, 0x64, 0x64, 0x00, 0x00, 0x00, 0x00, 0x02, 0x00, 0x00, 0x00,
    0x01, 0x00, 0x00, 0x00, 0x10, 0x00, 0x00, 0x00, 0x96, 0xfd, 0xff, 0xff, 0x00,
    0x00, 0x00, 0x01, 0x14, 0x00, 0x00, 0x00, 0x1c, 0x00, 0x00, 0x00, 0x1c, 0x00,
    0x00, 0x00, 0x08, 0x00, 0x00, 0x00, 0x60, 0x00, 0x00, 0x00, 0x02, 0x00, 0x00,
    0x00, 0xff, 0xff, 0xff, 0xff, 0x10, 0x00, 0x00, 0x00, 0x80, 0xfd, 0xff, 0xff,
    0x46, 0x00, 0x00, 0x00, 0x73, 0x65, 0x71, 0x75, 0x65, 0x6e, 0x74, 0x69, 0x61,
    0x6c, 0x2f, 0x64, 0x65, 0x6e, 0x73, 0x65, 0x2f, 0x4d, 0x61, 0x74, 0x4d, 0x75,
    0x6c, 0x3b, 0x73, 0x65, 0x71, 0x75, 0x65, 0x6e, 0x74, 0x69, 0x61, 0x6c, 0x2f,
    0x64, 0x65, 0x6e, 0x73, 0x65, 0x2f, 0x52, 0x65, 0x6c, 0x75, 0x3b, 0x73, 0x65,
    0x71, 0x75, 0x65, 0x6e, 0x74, 0x69, 0x61, 0x6c, 0x2f, 0x64, 0x65, 0x6e, 0x73,
    0x65, 0x2f, 0x42, 0x69, 0x61, 0x73, 0x41, 0x64, 0x64, 0x00, 0x00, 0x02, 0x00,
    0x00, 0x00, 0x01, 0x00, 0x00, 0x00, 0x10, 0x00, 0x00, 0x00, 0x86, 0xfe, 0xff,
    0xff, 0x00, 0x00, 0x00, 0x01, 0x10, 0x00, 0x00, 0x00, 0x10, 0x00, 0x00, 0x00,
    0x07, 0x00, 0x00, 0x00, 0x28, 0x00, 0x00, 0x00, 0xf4, 0xfd, 0xff, 0xff, 0x19,
    0x00, 0x00, 0x00, 0x73, 0x65, 0x71, 0x75, 0x65, 0x6e, 0x74, 0x69, 0x61, 0x6c,
    0x2f, 0x64, 0x65, 0x6e, 0x73, 0x65, 0x5f, 0x32, 0x2f, 0x4d, 0x61, 0x74, 0x4d,
    0x75, 0x6c, 0x00, 0x00, 0x00, 0x02, 0x00, 0x00, 0x00, 0x01, 0x00, 0x00, 0x00,
    0x10, 0x00, 0x00, 0x00, 0xce, 0xfe, 0xff, 0xff, 0x00, 0x00, 0x00, 0x01, 0x10,
    0x00, 0x00, 0x00, 0x10, 0x00, 0x00, 0x00, 0x06, 0x00, 0x00, 0x00, 0x28, 0x00,
    0x00, 0x00, 0x3c, 0xfe, 0xff, 0xff, 0x19, 0x00, 0x00, 0x00, 0x73, 0x65, 0x71,
    0x75, 0x65, 0x6e, 0x74, 0x69, 0x61, 0x6c, 0x2f, 0x64, 0x65, 0x6e, 0x73, 0x65,
    0x5f, 0x31, 0x2f, 0x4d, 0x61, 0x74, 0x4d, 0x75, 0x6c, 0x00, 0x00, 0x00, 0x02,
    0x00, 0x00, 0x00, 0x10, 0x00, 0x00, 0x00, 0x10, 0x00, 0x00, 0x00, 0x16, 0xff,
    0xff, 0xff, 0x00, 0x00, 0x00, 0x01, 0x10, 0x00, 0x00, 0x00, 0x10, 0x00, 0x00,
    0x00, 0x05, 0x00, 0x00, 0x00, 0x24, 0x00, 0x00, 0x00, 0x84, 0xfe, 0xff, 0xff,
    0x17, 0x00, 0x00, 0x00, 0x73, 0x65, 0x71, 0x75, 0x65, 0x6e, 0x74, 0x69, 0x61,
    0x6c, 0x2f, 0x64, 0x65, 0x6e, 0x73, 0x65, 0x2f, 0x4d, 0x61, 0x74, 0x4d, 0x75,
    0x6c, 0x00, 0x02, 0x00, 0x00, 0x00, 0x10, 0x00, 0x00, 0x00, 0x01, 0x00, 0x00,
    0x00, 0x5a, 0xff, 0xff, 0xff, 0x00, 0x00, 0x00, 0x01, 0x10, 0x00, 0x00, 0x00,
    0x10, 0x00, 0x00, 0x00, 0x04, 0x00, 0x00, 0x00, 0x34, 0x00, 0x00, 0x00, 0xc8,
    0xfe, 0xff, 0xff, 0x27, 0x00, 0x00, 0x00, 0x73, 0x65, 0x71, 0x75, 0x65, 0x6e,
    0x74, 0x69, 0x61, 0x6c, 0x2f, 0x64, 0x65, 0x6e, 0x73, 0x65, 0x2f, 0x42, 0x69,
    0x61, 0x73, 0x41, 0x64, 0x64, 0x2f, 0x52, 0x65, 0x61, 0x64, 0x56, 0x61, 0x72,
    0x69, 0x61, 0x62, 0x6c, 0x65, 0x4f, 0x70, 0x00, 0x01, 0x00, 0x00, 0x00, 0x10,
    0x00, 0x00, 0x00, 0xaa, 0xff, 0xff, 0xff, 0x00, 0x00, 0x00, 0x01, 0x10, 0x00,
    0x00, 0x00, 0x10, 0x00, 0x00, 0x00, 0x03, 0x00, 0x00, 0x00, 0x38, 0x00, 0x00,
    0x00, 0x18, 0xff, 0xff, 0xff, 0x29, 0x00, 0x00, 0x00, 0x73, 0x65, 0x71, 0x75,
    0x65, 0x6e, 0x74, 0x69, 0x61, 0x6c, 0x2f, 0x64, 0x65, 0x6e, 0x73, 0x65, 0x5f,
    0x32, 0x2f, 0x42, 0x69, 0x61, 0x73, 0x41, 0x64, 0x64, 0x2f, 0x52, 0x65, 0x61,
    0x64, 0x56, 0x61, 0x72, 0x69, 0x61, 0x62, 0x6c, 0x65, 0x4f, 0x70, 0x00, 0x00,
    0x00, 0x01, 0x00, 0x00, 0x00, 0x01, 0x00, 0x00, 0x00, 0x00, 0x00, 0x16, 0x00,
    0x18, 0x00, 0x14, 0x00, 0x00, 0x00, 0x10, 0x00, 0x0c, 0x00, 0x08, 0x00, 0x00,
    0x00, 0x00, 0x00, 0x00, 0x00, 0x07, 0x00, 0x16, 0x00, 0x00, 0x00, 0x00, 0x00,
    0x00, 0x01, 0x10, 0x00, 0x00, 0x00, 0x10, 0x00, 0x00, 0x00, 0x02, 0x00, 0x00,
    0x00, 0x38, 0x00, 0x00, 0x00, 0x84, 0xff, 0xff, 0xff, 0x29, 0x00, 0x00, 0x00,
    0x73, 0x65, 0x71, 0x75, 0x65, 0x6e, 0x74, 0x69, 0x61, 0x6c, 0x2f, 0x64, 0x65,
    0x6e, 0x73, 0x65, 0x5f, 0x31, 0x2f, 0x42, 0x69, 0x61, 0x73, 0x41, 0x64, 0x64,
    0x2f, 0x52, 0x65, 0x61, 0x64, 0x56, 0x61, 0x72, 0x69, 0x61, 0x62, 0x6c, 0x65,
    0x4f, 0x70, 0x00, 0x00, 0x00, 0x01, 0x00, 0x00, 0x00, 0x10, 0x00, 0x00, 0x00,
    0x00, 0x00, 0x16, 0x00, 0x1c, 0x00, 0x18, 0x00, 0x00, 0x00, 0x14, 0x00, 0x10,
    0x00, 0x0c, 0x00, 0x00, 0x00, 0x00, 0x00, 0x08, 0x00, 0x07, 0x00, 0x16, 0x00,
    0x00, 0x00, 0x00, 0x00, 0x00, 0x01, 0x14, 0x00, 0x00, 0x00, 0x20, 0x00, 0x00,
    0x00, 0x20, 0x00, 0x00, 0x00, 0x01, 0x00, 0x00, 0x00, 0x3c, 0x00, 0x00, 0x00,
    0x02, 0x00, 0x00, 0x00, 0xff, 0xff, 0xff, 0xff, 0x01, 0x00, 0x00, 0x00, 0x04,
    0x00, 0x04, 0x00, 0x04, 0x00, 0x00, 0x00, 0x1d, 0x00, 0x00, 0x00, 0x73, 0x65,
    0x72, 0x76, 0x69, 0x6e, 0x67, 0x5f, 0x64, 0x65, 0x66, 0x61, 0x75, 0x6c, 0x74,
    0x5f, 0x64, 0x65, 0x6e, 0x73, 0x65, 0x5f, 0x69, 0x6e, 0x70, 0x75, 0x74, 0x3a,
    0x30, 0x00, 0x00, 0x00, 0x02, 0x00, 0x00, 0x00, 0x01, 0x00, 0x00, 0x00, 0x01,
    0x00, 0x00, 0x00, 0x01, 0x00, 0x00, 0x00, 0x10, 0x00, 0x00, 0x00, 0x0c, 0x00,
    0x0c, 0x00, 0x0b, 0x00, 0x00, 0x00, 0x00, 0x00, 0x04, 0x00, 0x0c, 0x00, 0x00,
    0x00, 0x09, 0x00, 0x00, 0x00, 0x00, 0x00, 0x00, 0x09,
};
const int sine_model_len = 3168;
