
// This is a TensorFlow Lite model file that has been converted into a C data
// array using the tensorflow.lite.util.convert_bytes_to_c_source() function.
// This form is useful for compiling into a binary for devices that don't have a
// file system.


// We need to keep the data array aligned on some architectures.
#ifdef __has_attribute
#define HAVE_ATTRIBUTE(x) __has_attribute(x)
#else
#define HAVE_ATTRIBUTE(x) 0
#endif
#if HAVE_ATTRIBUTE(aligned) || (defined(__GNUC__) && !defined(__clang__))
#define DATA_ALIGN_ATTRIBUTE __attribute__((aligned(4)))
#else
#define DATA_ALIGN_ATTRIBUTE
#endif

const unsigned char sine_model[] DATA_ALIGN_ATTRIBUTE = {
    0x1c, 0x00, 0x00, 0x00, 0x54, 0x46, 0x4c, 0x33, 0x14, 0x00, 0x20, 0x00, 0x1c,
    0x00, 0x18, 0x00, 0x14, 0x00, 0x10, 0x00, 0x0c, 0x00, 0x00, 0x00, 0x08, 0x00,
    0x04, 0x00, 0x14, 0x00, 0x00, 0x00, 0x1c, 0x00, 0x00, 0x00, 0x94, 0x00, 0x00,
    0x00, 0xec, 0x00, 0x00, 0x00, 0x88, 0x0c, 0x00, 0x00, 0x98, 0x0c, 0x00, 0x00,
    0x38, 0x12, 0x00, 0x00, 0x03, 0x00, 0x00, 0x00, 0x01, 0x00, 0x00, 0x00, 0x10,
    0x00, 0x00, 0x00, 0x00, 0x00, 0x0a, 0x00, 0x10, 0x00, 0x0c, 0x00, 0x08, 0x00,
    0x04, 0x00, 0x0a, 0x00, 0x00, 0x00, 0x0c, 0x00, 0x00, 0x00, 0x1c, 0x00, 0x00,
    0x00, 0x38, 0x00, 0x00, 0x00, 0x0f, 0x00, 0x00, 0x00, 0x73, 0x65, 0x72, 0x76,
    0x69, 0x6e, 0x67, 0x5f, 0x64, 0x65, 0x66, 0x61, 0x75, 0x6c, 0x74, 0x00, 0x01,
    0x00, 0x00, 0x00, 0x04, 0x00, 0x00, 0x00, 0x94, 0xff, 0xff, 0xff, 0x0a, 0x00,
    0x00, 0x00, 0x04, 0x00, 0x00, 0x00, 0x07, 0x00, 0x00, 0x00, 0x64, 0x65, 0x6e,
    0x73, 0x65, 0x5f, 0x38, 0x00, 0x01, 0x00, 0x00, 0x00, 0x04, 0x00, 0x00, 0x00,
    0xee, 0xf2, 0xff, 0xff, 0x04, 0x00, 0x00, 0x00, 0x0d, 0x00, 0x00, 0x00, 0x64,
    0x65, 0x6e, 0x73, 0x65, 0x5f, 0x36, 0x5f, 0x69, 0x6e, 0x70, 0x75, 0x74, 0x00,
    0x00, 0x00, 0x02, 0x00, 0x00, 0x00, 0x34, 0x00, 0x00, 0x00, 0x04, 0x00, 0x00,
    0x00, 0xdc, 0xff, 0xff, 0xff, 0x0d, 0x00, 0x00, 0x00, 0x04, 0x00, 0x00, 0x00,
    0x13, 0x00, 0x00, 0x00, 0x43, 0x4f, 0x4e, 0x56, 0x45, 0x52, 0x53, 0x49, 0x4f,
    0x4e, 0x5f, 0x4d, 0x45, 0x54, 0x41, 0x44, 0x41, 0x54, 0x41, 0x00, 0x08, 0x00,
    0x0c, 0x00, 0x08, 0x00, 0x04, 0x00, 0x08, 0x00, 0x00, 0x00, 0x0c, 0x00, 0x00,
    0x00, 0x04, 0x00, 0x00, 0x00, 0x13, 0x00, 0x00, 0x00, 0x6d, 0x69, 0x6e, 0x5f,
    0x72, 0x75, 0x6e, 0x74, 0x69, 0x6d, 0x65, 0x5f, 0x76, 0x65, 0x72, 0x73, 0x69,
    0x6f, 0x6e, 0x00, 0x0e, 0x00, 0x00, 0x00, 0x98, 0x0b, 0x00, 0x00, 0x90, 0x0b,
    0x00, 0x00, 0x7c, 0x0b, 0x00, 0x00, 0x0c, 0x0b, 0x00, 0x00, 0x9c, 0x0a, 0x00,
    0x00, 0x2c, 0x0a, 0x00, 0x00, 0x1c, 0x01, 0x00, 0x00, 0xac, 0x00, 0x00, 0x00,
    0xa4, 0x00, 0x00, 0x00, 0x9c, 0x00, 0x00, 0x00, 0x94, 0x00, 0x00, 0x00, 0x8c,
    0x00, 0x00, 0x00, 0x6c, 0x00, 0x00, 0x00, 0x04, 0x00, 0x00, 0x00, 0xa2, 0xf3,
    0xff, 0xff, 0x04, 0x00, 0x00, 0x00, 0x58, 0x00, 0x00, 0x00, 0x0c, 0x00, 0x00,
    0x00, 0x08, 0x00, 0x0e, 0x00, 0x08, 0x00, 0x04, 0x00, 0x08, 0x00, 0x00, 0x00,
    0x10, 0x00, 0x00, 0x00, 0x28, 0x00, 0x00, 0x00, 0x00, 0x00, 0x06, 0x00, 0x08,
    0x00, 0x04, 0x00, 0x06, 0x00, 0x00, 0x00, 0x04, 0x00, 0x00, 0x00, 0x01, 0x00,
    0x00, 0x00, 0xea, 0x03, 0x00, 0x00, 0x00, 0x00, 0x0a, 0x00, 0x10, 0x00, 0x0c,
    0x00, 0x08, 0x00, 0x04, 0x00, 0x0a, 0x00, 0x00, 0x00, 0x02, 0x00, 0x00, 0x00,
    0x02, 0x00, 0x00, 0x00, 0x04, 0x00, 0x00, 0x00, 0x06, 0x00, 0x00, 0x00, 0x32,
    0x2e, 0x31, 0x32, 0x2e, 0x30, 0x00, 0x00, 0x06, 0xf4, 0xff, 0xff, 0x04, 0x00,
    0x00, 0x00, 0x10, 0x00, 0x00, 0x00, 0x31, 0x2e, 0x35, 0x2e, 0x30, 0x00, 0x00,
    0x00, 0x00, 0x00, 0x00, 0x00, 0x00, 0x00, 0x00, 0x00, 0x9c, 0xef, 0xff, 0xff,
    0xa0, 0xef, 0xff, 0xff, 0xa4, 0xef, 0xff, 0xff, 0xa8, 0xef, 0xff, 0xff, 0x32,
    0xf4, 0xff, 0xff, 0x04, 0x00, 0x00, 0x00, 0x60, 0x00, 0x00, 0x00, 0xf8, 0x70,
    0x11, 0x3d, 0x5c, 0x91, 0x49, 0xbf, 0xab, 0x68, 0xbe, 0x3c, 0xdb, 0x7d, 0x76,
    0xbf, 0xb4, 0x2c, 0xa3, 0xbf, 0x05, 0x06, 0xf7, 0x3e, 0x13, 0xe7, 0x7c, 0xbf,
    0xfd, 0x74, 0x24, 0xbf, 0x22, 0x8d, 0x4c, 0xbf, 0x23, 0x6e, 0x22, 0x40, 0xda,
    0x67, 0x8f, 0xbe, 0x26, 0x8b, 0xe3, 0x3e, 0xd8, 0x9f, 0xa0, 0x3e, 0x19, 0x35,
    0x89, 0x3e, 0xc0, 0xf8, 0xba, 0x3e, 0x14, 0x96, 0x07, 0x40, 0x0b, 0x2a, 0xfd,
    0x3d, 0x5a, 0x8b, 0xe7, 0x3e, 0x38, 0xe9, 0x81, 0x3f, 0x0f, 0xc9, 0x97, 0xbf,
    0x62, 0x6a, 0xe5, 0xbe, 0xd5, 0x6f, 0xb7, 0xbe, 0x8b, 0x28, 0x8e, 0xbe, 0xd3,
    0x81, 0xde, 0x3e, 0x9e, 0xf4, 0xff, 0xff, 0x04, 0x00, 0x00, 0x00, 0x00, 0x09,
    0x00, 0x00, 0x99, 0x4b, 0x86, 0xbe, 0x08, 0xc0, 0x36, 0xbd, 0xc0, 0x66, 0x2b,
    0xbc, 0xd1, 0x0e, 0x8f, 0xbe, 0x6d, 0x94, 0x84, 0x3e, 0xd0, 0xf1, 0xc1, 0xbd,
    0xff, 0xd1, 0x9a, 0x3e, 0x3b, 0x32, 0xa6, 0x3e, 0x0e, 0x71, 0xef, 0xbd, 0xc0,
    0x50, 0x95, 0x3c, 0x3c, 0x21, 0xa3, 0xbd, 0x38, 0x6c, 0x8a, 0xbd, 0x4e, 0xec,
    0x91, 0xbe, 0xa0, 0x7a, 0x94, 0xbe, 0x56, 0xd4, 0x6b, 0xbe, 0x16, 0x2f, 0x50,
    0x3e, 0x00, 0x68, 0x80, 0xbb, 0xb0, 0xc5, 0xa0, 0x3d, 0x2c, 0xca, 0x0a, 0x3e,
    0xcb, 0xbd, 0xa4, 0x3e, 0x75, 0xb3, 0xa9, 0xbe, 0x69, 0x43, 0xb2, 0xbe, 0x18,
    0x9c, 0xdc, 0x3d, 0xa0, 0x06, 0x6b, 0x3c, 0x36, 0x1f, 0xfd, 0xbe, 0xb7, 0xce,
    0x2b, 0xbe, 0x42, 0x29, 0xe8, 0xbe, 0xf0, 0x24, 0xd8, 0xbe, 0x4a, 0xf3, 0xca,
    0xbe, 0x58, 0x59, 0xef, 0x3e, 0x06, 0x24, 0x76, 0x3f, 0x8a, 0xfe, 0xab, 0xbe,
    0x73, 0xa7, 0x14, 0xbf, 0x66, 0x79, 0xaf, 0x3e, 0xc4, 0x72, 0xf8, 0xbd, 0x75,
    0xd2, 0x72, 0xbf, 0x64, 0x34, 0x94, 0xbe, 0x95, 0x84, 0x1c, 0xbe, 0x5e, 0x2f,
    0x0d, 0x3f, 0x04, 0x4e, 0x9a, 0xbe, 0x09, 0xc5, 0x9c, 0xbe, 0x39, 0x8f, 0x4b,
    0xbf, 0x0d, 0x8f, 0xba, 0xbe, 0x2b, 0x5a, 0x47, 0xbf, 0x54, 0xb3, 0x5a, 0xbf,
    0xb2, 0x2d, 0x1b, 0xbf, 0xf9, 0x11, 0x4e, 0xbd, 0x11, 0x49, 0xf8, 0xbd, 0x62,
    0x48, 0x4b, 0x3e, 0xf6, 0x89, 0x3e, 0x3e, 0x40, 0x1a, 0x6f, 0x3e, 0xef, 0x19,
    0x8c, 0x3e, 0xaa, 0x4e, 0x7b, 0xbe, 0x5f, 0xf6, 0x9e, 0x3e, 0x45, 0xfd, 0x5b,
    0x3e, 0xf1, 0x5e, 0xc5, 0x3d, 0x11, 0x15, 0x44, 0x3e, 0x09, 0x72, 0x49, 0xbe,
    0x05, 0x7d, 0x8a, 0xbe, 0xc4, 0x50, 0x81, 0xbe, 0x3b, 0xc6, 0x87, 0x3e, 0x3c,
    0x50, 0x6d, 0xbe, 0x94, 0x34, 0x4b, 0xbe, 0x9b, 0x29, 0xb4, 0xbe, 0xf2, 0x04,
    0xa0, 0xbd, 0xfc, 0x07, 0x03, 0x3e, 0x0a, 0x2d, 0xa6, 0xbe, 0xbc, 0xf2, 0x95,
    0xbd, 0x40, 0x42, 0x88, 0x3c, 0x05, 0x8b, 0xaf, 0xbd, 0x14, 0xf2, 0x5b, 0xbd,
    0x79, 0x1c, 0x61, 0xbe, 0xca, 0xb8, 0x40, 0xbe, 0xf7, 0xcd, 0xb1, 0xbe, 0xa9,
    0x36, 0x8d, 0xbf, 0xe0, 0xe6, 0x3f, 0xbf, 0x99, 0x53, 0x53, 0xbf, 0x92, 0xe8,
    0x3b, 0x3e, 0x91, 0x29, 0x75, 0x3f, 0x10, 0x0f, 0x5c, 0xbc, 0xe8, 0xc1, 0x60,
    0xbf, 0x2a, 0xc6, 0x8a, 0x3e, 0xa0, 0xc5, 0xd0, 0xbe, 0x22, 0xe9, 0x92, 0xbf,
    0x33, 0xec, 0x89, 0xbf, 0x8e, 0x4d, 0x0f, 0x3d, 0xc1, 0xb0, 0xc9, 0x3d, 0xc9,
    0xf6, 0x50, 0xbf, 0xde, 0xae, 0x11, 0xbf, 0x57, 0x0a, 0x86, 0xbf, 0xe0, 0xce,
    0x74, 0xbf, 0x62, 0x30, 0x14, 0xbf, 0xfe, 0x77, 0x4b, 0xbf, 0x87, 0x32, 0xbd,
    0xbe, 0x98, 0x11, 0xb6, 0xbe, 0x07, 0xe3, 0x3b, 0xbf, 0x1e, 0xb3, 0xa8, 0x3d,
    0x0b, 0x9e, 0xa1, 0xbe, 0x15, 0xaa, 0x24, 0x3f, 0xb9, 0x6e, 0x2a, 0x3f, 0xb1,
    0x9d, 0x3f, 0x3f, 0x4b, 0xa2, 0x00, 0xbf, 0x1e, 0x48, 0x99, 0xbf, 0x64, 0xf3,
    0x04, 0x3e, 0xb3, 0x59, 0xce, 0x3e, 0x6a, 0xa1, 0x6e, 0xbd, 0x10, 0xf1, 0x15,
    0x3f, 0x69, 0xe8, 0xf2, 0x3e, 0x9e, 0x1c, 0x43, 0x3f, 0xa6, 0x2f, 0xe9, 0x3d,
    0x07, 0xd5, 0x43, 0xbf, 0x39, 0x88, 0x76, 0x3f, 0xa1, 0x51, 0x63, 0xbe, 0xc6,
    0x00, 0x16, 0x3e, 0x09, 0x66, 0x07, 0x3f, 0x13, 0xa6, 0xc1, 0x3e, 0xc8, 0xe7,
    0xa0, 0x3f, 0x4c, 0x7b, 0x51, 0xbd, 0xdc, 0xfe, 0x97, 0xbe, 0x96, 0x82, 0xba,
    0x3e, 0xa6, 0x5f, 0x0d, 0x3e, 0x2c, 0x35, 0x55, 0xbe, 0x40, 0x30, 0x30, 0x3c,
    0xa5, 0x38, 0xab, 0x3e, 0x4b, 0x06, 0x8c, 0xbe, 0x77, 0xf4, 0x9b, 0x3e, 0x60,
    0xb9, 0xfe, 0xbc, 0x88, 0x9c, 0x42, 0xbd, 0xa8, 0x1f, 0x94, 0xbd, 0x00, 0x3d,
    0x84, 0xbd, 0x93, 0x49, 0x19, 0xbe, 0x80, 0xa2, 0x3b, 0x3c, 0x86, 0xe3, 0x61,
    0xbe, 0xa0, 0x80, 0x6b, 0xbd, 0x00, 0xf0, 0xa9, 0xbd, 0x4a, 0xf6, 0x1d, 0x3e,
    0x4e, 0xa0, 0x0d, 0xbe, 0x79, 0xb5, 0x61, 0xbe, 0x80, 0xb2, 0x2a, 0x3d, 0xc8,
    0x81, 0x9a, 0xbd, 0x7c, 0x3f, 0xa4, 0xbe, 0x78, 0x5e, 0xac, 0xbe, 0xa2, 0x97,
    0x30, 0x3e, 0xb0, 0xc6, 0x84, 0xbe, 0x18, 0x2f, 0xbe, 0xbd, 0xca, 0x53, 0x58,
    0x3e, 0xa2, 0x44, 0x30, 0xbf, 0xce, 0x3a, 0x50, 0xbf, 0xf1, 0x89, 0x7c, 0xbf,
    0xdc, 0xd0, 0x14, 0x3e, 0xf6, 0xac, 0x48, 0x3f, 0x6f, 0xef, 0xfc, 0xbe, 0x91,
    0xa2, 0x4d, 0xbf, 0x3b, 0x93, 0x91, 0xba, 0x4a, 0xbf, 0x62, 0xbf, 0x12, 0xab,
    0xf5, 0xbe, 0x90, 0xad, 0x18, 0xbf, 0x39, 0xf9, 0xed, 0xbc, 0x9f, 0x1b, 0xd8,
    0x3e, 0x0d, 0xb9, 0x7a, 0xbf, 0xbe, 0xe7, 0x1f, 0xbf, 0x5c, 0x5a, 0xdb, 0xbe,
    0x78, 0xf6, 0x16, 0xbf, 0x3b, 0x32, 0x61, 0xbf, 0xd4, 0xe7, 0x0d, 0xbf, 0xad,
    0x76, 0x17, 0xbf, 0x9f, 0x7e, 0x11, 0x3e, 0xbc, 0x02, 0x40, 0xbf, 0x89, 0x68,
    0xd3, 0x3c, 0x28, 0xcc, 0xf2, 0xbd, 0xe5, 0x48, 0x4f, 0xbf, 0xfb, 0x01, 0xe9,
    0xbe, 0xe1, 0xb1, 0x01, 0xbf, 0x2e, 0x45, 0x03, 0x3d, 0xb9, 0x2d, 0x6b, 0x3f,
    0xa3, 0xb0, 0x6b, 0x3d, 0x64, 0x16, 0x4d, 0xbf, 0xe0, 0x8a, 0x3d, 0x3e, 0x52,
    0x3f, 0x8a, 0xbe, 0x40, 0x59, 0x36, 0xbf, 0x77, 0x30, 0xc5, 0xbe, 0x1b, 0x9e,
    0xe9, 0xbd, 0xca, 0x6a, 0xee, 0x3e, 0xa5, 0x19, 0x26, 0xbf, 0xdc, 0x91, 0xed,
    0xbe, 0x14, 0x23, 0x53, 0xbf, 0x55, 0xe8, 0x44, 0xbf, 0xf2, 0x32, 0x17, 0xbf,
    0x6c, 0x9a, 0x17, 0xbf, 0x02, 0x97, 0x3a, 0xbf, 0xe8, 0x1c, 0xbe, 0xbe, 0x3c,
    0x64, 0x6e, 0xbe, 0x9f, 0x3e, 0x25, 0xbd, 0x07, 0xd9, 0x95, 0x3d, 0xa2, 0x2d,
    0x53, 0xbf, 0xd6, 0xf2, 0x51, 0xbf, 0xff, 0x13, 0x83, 0xbf, 0x79, 0xa6, 0x95,
    0x3e, 0x5e, 0xb5, 0x72, 0x3f, 0x24, 0x35, 0x53, 0xbe, 0xd5, 0x84, 0x80, 0xbf,
    0x44, 0x87, 0x0f, 0xbb, 0x0c, 0xcd, 0x1f, 0xbf, 0xb7, 0xdd, 0x71, 0xbf, 0xb7,
    0x71, 0x07, 0xbf, 0x55, 0xa1, 0x93, 0x3d, 0xd4, 0xb8, 0x79, 0x3e, 0x04, 0x41,
    0x82, 0xbf, 0x1f, 0xdf, 0xfd, 0xbe, 0x62, 0x88, 0x05, 0xbf, 0xe1, 0x9b, 0x0e,
    0xbf, 0xa5, 0x3e, 0x66, 0xbf, 0x7b, 0x18, 0x06, 0xbf, 0x17, 0xa0, 0xdb, 0xbe,
    0xfe, 0xe1, 0x7e, 0xbe, 0xcd, 0x63, 0x30, 0xbf, 0x63, 0x07, 0xce, 0xbf, 0xc6,
    0x24, 0x87, 0xbf, 0xf4, 0x56, 0x5f, 0xbf, 0x87, 0x25, 0xdf, 0xbf, 0x8d, 0xbb,
    0xc5, 0xbf, 0xee, 0x69, 0xd0, 0xbf, 0x02, 0x04, 0x58, 0xbf, 0x12, 0xf5, 0x04,
    0xc0, 0x29, 0xd6, 0x76, 0xbf, 0x3f, 0x15, 0x4a, 0xbf, 0x8b, 0x6f, 0xfc, 0xbf,
    0xbb, 0x2d, 0x6a, 0xbf, 0x78, 0x56, 0x8c, 0xbe, 0x9a, 0xd0, 0xea, 0xbf, 0xae,
    0x12, 0x20, 0x3f, 0x6f, 0x11, 0xcc, 0xbd, 0x21, 0x8b, 0xac, 0xbf, 0x2b, 0xf9,
    0xea, 0xbf, 0x47, 0xa4, 0xd8, 0xbf, 0x22, 0xc8, 0xb2, 0xbf, 0x12, 0xc1, 0x3d,
    0x3a, 0x15, 0xdc, 0x0d, 0xc0, 0xc6, 0x85, 0x05, 0xc0, 0x07, 0xf6, 0x05, 0xc0,
    0xa8, 0x89, 0x57, 0xbd, 0xfc, 0x2f, 0x80, 0x3d, 0x6e, 0xe7, 0x30, 0x3e, 0xb0,
    0xe5, 0x23, 0x3d, 0x5e, 0xe5, 0x78, 0xbe, 0x27, 0x92, 0x93, 0xbe, 0x88, 0xe5,
    0xac, 0x3d, 0xff, 0xd5, 0x6a, 0xbe, 0x38, 0xc8, 0x75, 0xbe, 0xfa, 0x3a, 0x4a,
    0x3e, 0x21, 0x01, 0xb1, 0x3e, 0x30, 0x32, 0x8d, 0xbd, 0x30, 0x9a, 0xe8, 0xbc,
    0xaa, 0x55, 0x20, 0x3e, 0x9c, 0x88, 0x93, 0xbd, 0xfe, 0x7a, 0x74, 0xbe, 0xe8,
    0xbb, 0xaa, 0x3d, 0xac, 0x02, 0x89, 0xbe, 0xc7, 0xc3, 0xaf, 0xbe, 0xa8, 0x13,
    0x61, 0xbd, 0x48, 0xe5, 0x25, 0xbd, 0x34, 0xa9, 0x9f, 0x3d, 0x4b, 0x24, 0xb3,
    0xbe, 0xfc, 0x9f, 0xe2, 0x3d, 0x8d, 0x8c, 0x97, 0xbe, 0x3f, 0xf6, 0x04, 0xbe,
    0x4a, 0xbc, 0xaa, 0x3e, 0x68, 0x57, 0xc5, 0xbc, 0x83, 0xb7, 0xe2, 0x3d, 0xd7,
    0x53, 0xae, 0xbe, 0x67, 0x38, 0x36, 0x3e, 0xa3, 0x2f, 0xe9, 0xbd, 0x70, 0xa3,
    0xac, 0xbe, 0x1e, 0x55, 0x3e, 0x3d, 0xbd, 0x77, 0xb1, 0xbe, 0x05, 0x19, 0x55,
    0x3e, 0x76, 0x72, 0xb0, 0xbe, 0xac, 0x46, 0xb4, 0xbe, 0x83, 0x11, 0x83, 0xbe,
    0x5b, 0xd6, 0x8e, 0xbe, 0x49, 0x50, 0x30, 0x3e, 0xc0, 0x4f, 0x99, 0x3d, 0x66,
    0x7a, 0x29, 0x3d, 0x37, 0x2b, 0x41, 0xbe, 0xb8, 0x59, 0x87, 0x3e, 0x91, 0x9a,
    0xad, 0x3e, 0xfb, 0xe8, 0x71, 0x3e, 0x75, 0x9e, 0xab, 0x3e, 0xf2, 0x0a, 0xed,
    0x3e, 0x9b, 0x4d, 0x0f, 0x3e, 0x56, 0xcb, 0x16, 0xbf, 0x99, 0xad, 0x07, 0xbe,
    0xb1, 0x6f, 0x27, 0x3e, 0x77, 0x58, 0x90, 0xbe, 0xd4, 0xf6, 0x4b, 0xbe, 0xc5,
    0xe4, 0x5d, 0x3d, 0x98, 0x8c, 0x1e, 0xbe, 0xe2, 0x86, 0x89, 0x3e, 0x85, 0xf0,
    0xa4, 0x3e, 0xbd, 0xf3, 0x0c, 0xbf, 0x69, 0xe6, 0x8a, 0xbe, 0x27, 0xb8, 0x62,
    0x3e, 0x5a, 0x6c, 0xcc, 0x3d, 0x9b, 0x75, 0x21, 0xbe, 0x10, 0xe4, 0xe3, 0x3e,
    0x49, 0x0d, 0x84, 0xbd, 0x2a, 0xe2, 0xa5, 0xbe, 0x35, 0xd0, 0x29, 0x3e, 0x6f,
    0x28, 0x09, 0xbf, 0x75, 0x51, 0x2d, 0x3e, 0x0d, 0xbe, 0xd1, 0x3e, 0x0d, 0xf3,
    0x11, 0x3f, 0xbe, 0x6c, 0x74, 0xbe, 0x8a, 0x03, 0x31, 0x3e, 0x2a, 0x09, 0x60,
    0x3e, 0x28, 0x5e, 0x84, 0xbe, 0x9a, 0x85, 0x34, 0x3e, 0x30, 0xd1, 0x73, 0x3d,
    0xe0, 0x26, 0x08, 0xbd, 0x86, 0x66, 0x4c, 0x3e, 0xb4, 0x03, 0x80, 0xbe, 0x64,
    0x0a, 0xcd, 0xbd, 0x80, 0x43, 0xd0, 0x3c, 0x30, 0xb4, 0x3c, 0xbe, 0x88, 0x55,
    0x03, 0x3e, 0xdc, 0xe5, 0xf4, 0x3d, 0x6f, 0x28, 0x68, 0xbe, 0x48, 0x93, 0xc1,
    0xbd, 0x68, 0x48, 0x5b, 0x3d, 0x20, 0xc7, 0xb9, 0x3c, 0x4d, 0x47, 0x86, 0xbe,
    0x00, 0x6a, 0x4b, 0x3b, 0x2e, 0x8d, 0x73, 0x3e, 0x80, 0x64, 0x4d, 0x3c, 0xaa,
    0x43, 0x80, 0xbe, 0x30, 0xc4, 0xdd, 0x3d, 0xa7, 0x30, 0xa0, 0x3d, 0xa9, 0x10,
    0x0b, 0xbc, 0xfa, 0x8b, 0x74, 0xbe, 0x7b, 0xa1, 0x80, 0x3e, 0xf1, 0x04, 0xa4,
    0xbe, 0xeb, 0x53, 0xab, 0x3e, 0xb2, 0x0a, 0xeb, 0xbd, 0x87, 0x7a, 0xa0, 0x3e,
    0x9d, 0xc4, 0x79, 0xbe, 0xca, 0xca, 0xdc, 0xbd, 0xaa, 0x57, 0xf0, 0x3e, 0xd1,
    0x2e, 0xab, 0x3d, 0x50, 0xab, 0x27, 0xbe, 0x45, 0xf3, 0xa5, 0x3d, 0x4d, 0x08,
    0x8c, 0x3e, 0x1b, 0xd2, 0xad, 0xbe, 0x5f, 0xa0, 0x0d, 0x3f, 0xa2, 0xfd, 0x38,
    0x3e, 0x87, 0xe2, 0x8d, 0xbe, 0x5e, 0xf5, 0xb2, 0xbd, 0x3d, 0xe0, 0x37, 0xbf,
    0x36, 0xc7, 0xb3, 0xbd, 0xe7, 0x18, 0xd4, 0x3e, 0x8f, 0x5d, 0x0f, 0x3f, 0x3f,
    0xd1, 0xb1, 0xbf, 0x88, 0x19, 0x53, 0xbe, 0xc2, 0xd5, 0x97, 0xbe, 0x7c, 0x47,
    0x4e, 0xbf, 0x6e, 0x88, 0x84, 0xbf, 0xff, 0x4f, 0xb7, 0xbf, 0x14, 0xae, 0x8d,
    0xbf, 0x3a, 0x69, 0x9c, 0xbf, 0xa6, 0x5b, 0x77, 0xbe, 0xa8, 0x32, 0x59, 0xbe,
    0x18, 0x1b, 0xa4, 0xbf, 0x35, 0xae, 0xd4, 0xbe, 0x85, 0xd7, 0x68, 0xbe, 0x01,
    0x4e, 0x94, 0xbf, 0xe1, 0xc4, 0xd0, 0x3e, 0xa7, 0x01, 0x34, 0xbd, 0xaf, 0xa7,
    0x16, 0xbf, 0x35, 0xcd, 0xa6, 0xbf, 0xbe, 0xea, 0x05, 0xbf, 0x99, 0xec, 0x3c,
    0xbf, 0x3f, 0x90, 0xbb, 0xbe, 0x19, 0xb2, 0xdb, 0xbf, 0xf5, 0x2f, 0xb6, 0xbf,
    0x14, 0xed, 0xc4, 0xbf, 0x5f, 0x77, 0x97, 0x3e, 0x6d, 0xe6, 0x05, 0x3e, 0xcb,
    0x99, 0xd3, 0x3d, 0xee, 0xff, 0x88, 0xbe, 0xb4, 0x2d, 0x83, 0xbe, 0xbf, 0x4f,
    0xf2, 0x3c, 0x6f, 0x25, 0x50, 0xbe, 0x8e, 0x0e, 0xab, 0x3c, 0x6f, 0xb9, 0x32,
    0xbe, 0xa7, 0x2d, 0x89, 0xbe, 0x46, 0x18, 0x71, 0x3e, 0x0b, 0x1c, 0x2c, 0x3d,
    0x90, 0x02, 0xb1, 0x3e, 0x42, 0x4a, 0xa2, 0xbe, 0xaf, 0x36, 0x86, 0xbe, 0x07,
    0x87, 0x7e, 0xbe, 0x9b, 0x87, 0xe7, 0x3d, 0x6f, 0xdd, 0xb9, 0x3d, 0x84, 0x54,
    0x75, 0x3e, 0x16, 0xef, 0xaa, 0xbe, 0x97, 0x3c, 0x27, 0x3d, 0x02, 0x15, 0x59,
    0x3e, 0x81, 0x20, 0x4c, 0x3d, 0xaf, 0x38, 0xbd, 0x3d, 0x7e, 0x10, 0xa1, 0x3c,
    0x4f, 0xcb, 0x88, 0x3e, 0x2f, 0x1b, 0xb3, 0xbe, 0x3f, 0xad, 0x80, 0x3e, 0x46,
    0x4c, 0x73, 0xbd, 0x3a, 0xd7, 0x5a, 0x3e, 0x8f, 0x0e, 0x8c, 0xbe, 0xf0, 0xb0,
    0xc8, 0x3e, 0xc7, 0xdc, 0xf3, 0x3d, 0x95, 0xd6, 0xb5, 0xbe, 0x1f, 0x38, 0xf0,
    0x3e, 0x25, 0x08, 0x1d, 0xbe, 0xcb, 0xcf, 0xbd, 0xbe, 0x2f, 0xba, 0x14, 0x3e,
    0x02, 0x9e, 0x8a, 0x3e, 0xe7, 0xa7, 0x03, 0xbf, 0x7e, 0xc0, 0xb6, 0x3d, 0x32,
    0xf4, 0xc9, 0xbd, 0xc2, 0x9d, 0xbb, 0x3e, 0xff, 0xd1, 0x83, 0x3d, 0x53, 0xf5,
    0x0f, 0xbf, 0x0d, 0xb9, 0x01, 0x3f, 0x89, 0x39, 0xf2, 0x3e, 0xca, 0x73, 0x1c,
    0x3f, 0xc8, 0xb8, 0x65, 0x3f, 0x7a, 0xeb, 0x8e, 0x3e, 0xb2, 0xa6, 0x8d, 0xbe,
    0xcd, 0x8f, 0x39, 0x3f, 0xa9, 0xa5, 0x04, 0x3e, 0x1e, 0xcf, 0xc3, 0x3e, 0xe5,
    0x40, 0x8b, 0x3c, 0xad, 0x8c, 0x30, 0x3f, 0x7e, 0xe6, 0x62, 0x3d, 0x23, 0xaf,
    0x46, 0x3e, 0x38, 0x26, 0xe6, 0x3e, 0x6a, 0x1a, 0xa8, 0xbe, 0x46, 0x64, 0x0b,
    0xbf, 0x07, 0x41, 0x61, 0x3f, 0xe6, 0xed, 0x1e, 0xbf, 0x30, 0x07, 0x0f, 0xbf,
    0xcb, 0x47, 0xd3, 0x3e, 0xe1, 0xe4, 0x8f, 0x3e, 0x93, 0xb4, 0xb4, 0x3e, 0xb7,
    0xf8, 0x34, 0x3f, 0x9e, 0xca, 0x03, 0xbf, 0x5e, 0x3f, 0x5b, 0x3f, 0xb3, 0x09,
    0x6f, 0x3f, 0x0b, 0xd0, 0x52, 0x3f, 0xe6, 0xf2, 0xb9, 0xbe, 0xf4, 0xb9, 0x81,
    0x3e, 0x77, 0x80, 0x6b, 0x3f, 0x6c, 0xa4, 0x0d, 0xbe, 0xf7, 0xaa, 0x18, 0x3e,
    0x52, 0x32, 0x85, 0xbe, 0xad, 0x33, 0x2c, 0xbf, 0xe5, 0x84, 0x72, 0xbe, 0x0f,
    0xb5, 0x3d, 0x3e, 0xe3, 0xd9, 0x73, 0xbe, 0xcd, 0xed, 0xe7, 0x3e, 0x7f, 0x86,
    0x63, 0x3f, 0x1c, 0xab, 0x7f, 0x3f, 0x66, 0x48, 0x8c, 0x3d, 0x62, 0x5a, 0x9d,
    0xbf, 0x68, 0x53, 0x47, 0x3f, 0xed, 0xc7, 0xaa, 0xbe, 0x4b, 0xa0, 0x7c, 0xbd,
    0xae, 0x6a, 0x69, 0x3e, 0xb4, 0xd7, 0x3b, 0x3e, 0x26, 0x1b, 0x61, 0x3f, 0xee,
    0xb8, 0x9b, 0x3e, 0xbc, 0xcb, 0x4c, 0x3d, 0x00, 0xb3, 0x99, 0xbe, 0x81, 0x2c,
    0xae, 0xbe, 0xf9, 0x52, 0x9d, 0x3e, 0xb9, 0x44, 0x59, 0xbf, 0x02, 0x1c, 0x12,
    0xbf, 0x5c, 0xdc, 0x2e, 0xbf, 0x17, 0x8f, 0x07, 0x3e, 0x4f, 0xae, 0x3c, 0x3f,
    0xf8, 0x0e, 0xb2, 0xbe, 0xd5, 0x5c, 0xfe, 0xbe, 0x0f, 0x1f, 0xed, 0xbc, 0x4f,
    0xe5, 0xc0, 0xbc, 0xa0, 0xf5, 0x5e, 0xbe, 0x01, 0x77, 0x40, 0xbf, 0x7c, 0xa0,
    0x21, 0xbe, 0x9a, 0x65, 0xdd, 0x3e, 0x67, 0xa5, 0x35, 0xbf, 0xca, 0x12, 0x89,
    0x3d, 0xa9, 0x18, 0x36, 0xbf, 0x43, 0x02, 0x34, 0xbf, 0xa0, 0x73, 0x1a, 0xbf,
    0xd9, 0x64, 0x01, 0xbf, 0x3f, 0x0f, 0xdd, 0xbe, 0x53, 0xc9, 0x07, 0xbe, 0xc6,
    0x69, 0xda, 0xbe, 0x0b, 0xc8, 0x54, 0xbd, 0x53, 0x32, 0x7f, 0xbe, 0x34, 0xf4,
    0xfb, 0xbd, 0xa5, 0xc7, 0xcc, 0xbd, 0x27, 0xc0, 0x3f, 0xbe, 0x43, 0xb7, 0x9e,
    0xbe, 0x94, 0x1f, 0x59, 0xbd, 0x43, 0x32, 0xc8, 0xbd, 0xf0, 0x10, 0x9a, 0xbd,
    0xfb, 0x8a, 0xec, 0x3d, 0xdf, 0x03, 0x02, 0xbe, 0x57, 0xc6, 0x4b, 0x3e, 0x86,
    0xb0, 0x37, 0x3e, 0xdd, 0xc1, 0x99, 0x3e, 0x1d, 0x49, 0xb2, 0x3c, 0x0b, 0xc3,
    0x86, 0xbe, 0x1b, 0x92, 0x66, 0x3d, 0xde, 0x33, 0xfd, 0x3d, 0xbd, 0x27, 0x19,
    0x3e, 0x5a, 0x29, 0xb3, 0x3e, 0xf2, 0x55, 0x7b, 0xbe, 0x44, 0xac, 0x54, 0x3e,
    0x3a, 0x85, 0x1e, 0xbe, 0x5c, 0x0e, 0x00, 0x3d, 0x00, 0x28, 0x74, 0xbd, 0xb4,
    0x81, 0x10, 0x3d, 0x11, 0x61, 0x56, 0xbe, 0x78, 0xb9, 0xb1, 0x3e, 0x96, 0x2d,
    0x91, 0xbe, 0x50, 0x38, 0x5a, 0x3e, 0x32, 0x12, 0x93, 0xbe, 0x00, 0xe6, 0x95,
    0xbe, 0x89, 0xd9, 0x9c, 0xbe, 0xae, 0xe5, 0x08, 0xbe, 0xcc, 0x83, 0xd0, 0xbd,
    0x38, 0xa3, 0x48, 0x3e, 0xf8, 0x77, 0xa1, 0xbe, 0xbd, 0xd5, 0x82, 0xbd, 0x13,
    0xbe, 0x7c, 0x3d, 0xef, 0x37, 0x15, 0x3e, 0xc6, 0x67, 0x4a, 0xbe, 0xe2, 0x0a,
    0x0d, 0xbc, 0x82, 0x89, 0x9d, 0x3e, 0xd8, 0x5c, 0xb7, 0x3d, 0xd7, 0x0d, 0xd8,
    0xbc, 0x52, 0x9a, 0x88, 0xbe, 0x0b, 0xa7, 0x55, 0xbe, 0x71, 0x0c, 0xc0, 0x3d,
    0x01, 0x1d, 0x00, 0xbe, 0x06, 0x44, 0x63, 0x3e, 0xda, 0x5a, 0x09, 0xbe, 0xa0,
    0xac, 0x32, 0xbd, 0x38, 0x20, 0x09, 0x3d, 0xe4, 0x10, 0xb8, 0xbd, 0x9a, 0xef,
    0x7b, 0x3e, 0x08, 0x71, 0x9f, 0xbe, 0xe6, 0xc1, 0xf5, 0xbd, 0x80, 0x22, 0xe9,
    0x3d, 0x87, 0xcd, 0x86, 0xbe, 0xaa, 0x42, 0x35, 0x3e, 0x94, 0x2d, 0x04, 0x3e,
    0x35, 0x25, 0x75, 0xbe, 0x3a, 0xc4, 0x92, 0xbe, 0x1f, 0x5e, 0x90, 0x3e, 0x30,
    0x53, 0x5c, 0xbe, 0x5d, 0x8e, 0x47, 0xbe, 0x73, 0x42, 0x6f, 0xbe, 0xa3, 0xcb,
    0xac, 0x3e, 0x82, 0xbb, 0x47, 0xbe, 0x7e, 0x99, 0x30, 0x3e, 0x86, 0xa8, 0x62,
    0x3e, 0xdc, 0x94, 0xd0, 0xbd, 0xaa, 0xfd, 0xff, 0xff, 0x04, 0x00, 0x00, 0x00,
    0x60, 0x00, 0x00, 0x00, 0x88, 0x14, 0xa0, 0xbd, 0x27, 0xc8, 0x94, 0xbe, 0x5b,
    0xe2, 0x7b, 0xbf, 0xf7, 0x12, 0xa3, 0xbe, 0x2c, 0x1c, 0xfd, 0xbe, 0xe5, 0xbb,
    0x90, 0x3e, 0xeb, 0x29, 0x12, 0x3f, 0x11, 0xd6, 0x85, 0xbd, 0x4c, 0xfc, 0x07,
    0xbf, 0x02, 0x7f, 0x8d, 0xbe, 0xbd, 0xef, 0x8d, 0xbe, 0xcf, 0x2d, 0x62, 0xbf,
    0xfc, 0x52, 0x98, 0xbf, 0x32, 0x94, 0xf9, 0xbc, 0x0f, 0x5e, 0x6a, 0x3f, 0x03,
    0x64, 0x8f, 0xbf, 0x34, 0x7d, 0x82, 0xbe, 0x13, 0x75, 0x9e, 0xbe, 0x73, 0xda,
    0xdf, 0xbe, 0x23, 0x96, 0xbb, 0xbe, 0x18, 0x6b, 0xa5, 0xbf, 0xdc, 0xa4, 0x0b,
    0xbe, 0x7c, 0x16, 0x04, 0x3d, 0x59, 0x8f, 0x08, 0xbe, 0x16, 0xfe, 0xff, 0xff,
    0x04, 0x00, 0x00, 0x00, 0x60, 0x00, 0x00, 0x00, 0xc9, 0x27, 0x66, 0xbe, 0x1b,
    0x4a, 0x6a, 0xbf, 0x59, 0xc0, 0x30, 0x3f, 0x21, 0xe5, 0xd9, 0x3e, 0xe3, 0xdb,
    0x13, 0x3f, 0x9e, 0xec, 0xf5, 0xbe, 0x19, 0xc8, 0x52, 0x3d, 0xf4, 0x30, 0x39,
    0xbe, 0x12, 0xe0, 0xec, 0x3b, 0xda, 0xf5, 0x91, 0xbf, 0x53, 0x5a, 0x8a, 0x3e,
    0xfd, 0xef, 0x27, 0x3f, 0xab, 0x5f, 0x21, 0x3f, 0x45, 0xef, 0xa2, 0xbe, 0xb7,
    0x21, 0xc9, 0xbe, 0x01, 0x58, 0x19, 0x3f, 0x1f, 0xbc, 0x9e, 0xbe, 0xda, 0x65,
    0xae, 0x3e, 0x65, 0x39, 0xd2, 0x3e, 0x38, 0x93, 0xb6, 0x3e, 0x45, 0xad, 0x5c,
    0x3f, 0xb7, 0xa9, 0xe5, 0x3e, 0xa8, 0xc5, 0x61, 0xbd, 0x4b, 0x91, 0xd2, 0x3e,
    0x82, 0xfe, 0xff, 0xff, 0x04, 0x00, 0x00, 0x00, 0x60, 0x00, 0x00, 0x00, 0x00,
    0x00, 0x00, 0x00, 0xae, 0x74, 0xdf, 0xbc, 0x2a, 0x5f, 0xab, 0xbb, 0xdf, 0xe1,
    0x02, 0xbe, 0xc4, 0x84, 0xcd, 0x3b, 0x00, 0x00, 0x00, 0x00, 0x4d, 0x0b, 0x53,
    0xbd, 0xa4, 0xf2, 0x3b, 0xbd, 0x0b, 0x0b, 0x0b, 0xbe, 0x9f, 0x45, 0x89, 0xbd,
    0x00, 0x00, 0x00, 0x00, 0x19, 0x30, 0x4a, 0xbc, 0x90, 0x03, 0x2b, 0x3e, 0x00,
    0x00, 0x00, 0x00, 0x40, 0x87, 0x29, 0x3e, 0x46, 0x62, 0xbb, 0x3b, 0x98, 0x1f,
    0x21, 0xbb, 0x1c, 0x81, 0x2b, 0x3e, 0x01, 0xff, 0x86, 0x3e, 0x83, 0x9a, 0x5e,
    0xbd, 0x89, 0x08, 0x01, 0x3d, 0xde, 0xa7, 0x95, 0xbc, 0x0f, 0x8d, 0xc2, 0xbc,
    0x00, 0x00, 0x00, 0x00, 0xee, 0xfe, 0xff, 0xff, 0x04, 0x00, 0x00, 0x00, 0x04,
    0x00, 0x00, 0x00, 0x0f, 0xe4, 0x29, 0x3e, 0x78, 0xfa, 0xff, 0xff, 0x7c, 0xfa,
    0xff, 0xff, 0x0f, 0x00, 0x00, 0x00, 0x4d, 0x4c, 0x49, 0x52, 0x20, 0x43, 0x6f,
    0x6e, 0x76, 0x65, 0x72, 0x74, 0x65, 0x64, 0x2e, 0x00, 0x01, 0x00, 0x00, 0x00,
    0x14, 0x00, 0x00, 0x00, 0x00, 0x00, 0x0e, 0x00, 0x18, 0x00, 0x14, 0x00, 0x10,
    0x00, 0x0c, 0x00, 0x08, 0x00, 0x04, 0x00, 0x0e, 0x00, 0x00, 0x00, 0x14, 0x00,
    0x00, 0x00, 0x1c, 0x00, 0x00, 0x00, 0x20, 0x01, 0x00, 0x00, 0x24, 0x01, 0x00,
    0x00, 0x28, 0x01, 0x00, 0x00, 0x04, 0x00, 0x00, 0x00, 0x6d, 0x61, 0x69, 0x6e,
    0x00, 0x00, 0x00, 0x00, 0x04, 0x00, 0x00, 0x00, 0xd4, 0x00, 0x00, 0x00, 0x88,
    0x00, 0x00, 0x00, 0x38, 0x00, 0x00, 0x00, 0x04, 0x00, 0x00, 0x00, 0x4a, 0xff,
    0xff, 0xff, 0x10, 0x00, 0x00, 0x00, 0x00, 0x00, 0x00, 0x08, 0x0c, 0x00, 0x00,
    0x00, 0x10, 0x00, 0x00, 0x00, 0xf8, 0xfa, 0xff, 0xff, 0x01, 0x00, 0x00, 0x00,
    0x0a, 0x00, 0x00, 0x00, 0x03, 0x00, 0x00, 0x00, 0x09, 0x00, 0x00, 0x00, 0x06,
    0x00, 0x00, 0x00, 0x01, 0x00, 0x00, 0x00, 0x7a, 0xff, 0xff, 0xff, 0x18, 0x00,
    0x00, 0x00, 0x00, 0x00, 0x00, 0x08, 0x18, 0x00, 0x00, 0x00, 0x1c, 0x00, 0x00,
    0x00, 0x00, 0x00, 0x06, 0x00, 0x08, 0x00, 0x07, 0x00, 0x06, 0x00, 0x00, 0x00,
    0x00, 0x00, 0x00, 0x01, 0x01, 0x00, 0x00, 0x00, 0x09, 0x00, 0x00, 0x00, 0x03,
    0x00, 0x00, 0x00, 0x08, 0x00, 0x00, 0x00, 0x05, 0x00, 0x00, 0x00, 0x02, 0x00,
    0x00, 0x00, 0x00, 0x00, 0x0e, 0x00, 0x1a, 0x00, 0x14, 0x00, 0x10, 0x00, 0x0c,
    0x00, 0x0b, 0x00, 0x04, 0x00, 0x0e, 0x00, 0x00, 0x00, 0x1c, 0x00, 0x00, 0x00,
    0x00, 0x00, 0x00, 0x09, 0x1c, 0x00, 0x00, 0x00, 0x20, 0x00, 0x00, 0x00, 0x01,
    0x00, 0x00, 0x00, 0x00, 0x00, 0x06, 0x00, 0x08, 0x00, 0x04, 0x00, 0x06, 0x00,
    0x00, 0x00, 0x00, 0x00, 0x80, 0x3f, 0x01, 0x00, 0x00, 0x00, 0x08, 0x00, 0x00,
    0x00, 0x01, 0x00, 0x00, 0x00, 0x07, 0x00, 0x00, 0x00, 0x00, 0x00, 0x0e, 0x00,
    0x14, 0x00, 0x00, 0x00, 0x10, 0x00, 0x0c, 0x00, 0x0b, 0x00, 0x04, 0x00, 0x0e,
    0x00, 0x00, 0x00, 0x10, 0x00, 0x00, 0x00, 0x00, 0x00, 0x00, 0x08, 0x0c, 0x00,
    0x00, 0x00, 0x10, 0x00, 0x00, 0x00, 0xbc, 0xfb, 0xff, 0xff, 0x01, 0x00, 0x00,
    0x00, 0x07, 0x00, 0x00, 0x00, 0x03, 0x00, 0x00, 0x00, 0x00, 0x00, 0x00, 0x00,
    0x04, 0x00, 0x00, 0x00, 0x03, 0x00, 0x00, 0x00, 0x01, 0x00, 0x00, 0x00, 0x0a,
    0x00, 0x00, 0x00, 0x01, 0x00, 0x00, 0x00, 0x00, 0x00, 0x00, 0x00, 0x0b, 0x00,
    0x00, 0x00, 0xec, 0x03, 0x00, 0x00, 0x7c, 0x03, 0x00, 0x00, 0x0c, 0x03, 0x00,
    0x00, 0xb4, 0x02, 0x00, 0x00, 0x68, 0x02, 0x00, 0x00, 0x1c, 0x02, 0x00, 0x00,
    0xd0, 0x01, 0x00, 0x00, 0x54, 0x01, 0x00, 0x00, 0xf4, 0x00, 0x00, 0x00, 0x60,
    0x00, 0x00, 0x00, 0x04, 0x00, 0x00, 0x00, 0x56, 0xfc, 0xff, 0xff, 0x00, 0x00,
    0x00, 0x01, 0x14, 0x00, 0x00, 0x00, 0x1c, 0x00, 0x00, 0x00, 0x1c, 0x00, 0x00,
    0x00, 0x0b, 0x00, 0x00, 0x00, 0x34, 0x00, 0x00, 0x00, 0x02, 0x00, 0x00, 0x00,
    0xff, 0xff, 0xff, 0xff, 0x01, 0x00, 0x00, 0x00, 0x40, 0xfc, 0xff, 0xff, 0x19,
    0x00, 0x00, 0x00, 0x53, 0x74, 0x61, 0x74, 0x65, 0x66, 0x75, 0x6c, 0x50, 0x61,
    0x72, 0x74, 0x69, 0x74, 0x69, 0x6f, 0x6e, 0x65, 0x64, 0x43, 0x61, 0x6c, 0x6c,
    0x3a, 0x30, 0x00, 0x00, 0x00, 0x02, 0x00, 0x00, 0x00, 0x01, 0x00, 0x00, 0x00,
    0x01, 0x00, 0x00, 0x00, 0xae, 0xfc, 0xff, 0xff, 0x00, 0x00, 0x00, 0x01, 0x14,
    0x00, 0x00, 0x00, 0x1c, 0x00, 0x00, 0x00, 0x1c, 0x00, 0x00, 0x00, 0x0a, 0x00,
    0x00, 0x00, 0x6c, 0x00, 0x00, 0x00, 0x02, 0x00, 0x00, 0x00, 0xff, 0xff, 0xff,
    0xff, 0x18, 0x00, 0x00, 0x00, 0x98, 0xfc, 0xff, 0xff, 0x52, 0x00, 0x00, 0x00,
    0x73, 0x65, 0x71, 0x75, 0x65, 0x6e, 0x74, 0x69, 0x61, 0x6c, 0x5f, 0x32, 0x2f,
    0x64, 0x65, 0x6e, 0x73, 0x65, 0x5f, 0x37, 0x2f, 0x4d, 0x61, 0x74, 0x4d, 0x75,
    0x6c, 0x3b, 0x73, 0x65, 0x71, 0x75, 0x65, 0x6e, 0x74, 0x69, 0x61, 0x6c, 0x5f,
    0x32, 0x2f, 0x64, 0x65, 0x6e, 0x73, 0x65, 0x5f, 0x37, 0x2f, 0x52, 0x65, 0x6c,
    0x75, 0x3b, 0x73, 0x65, 0x71, 0x75, 0x65, 0x6e, 0x74, 0x69, 0x61, 0x6c, 0x5f,
    0x32, 0x2f, 0x64, 0x65, 0x6e, 0x73, 0x65, 0x5f, 0x37, 0x2f, 0x42, 0x69, 0x61,
    0x73, 0x41, 0x64, 0x64, 0x00, 0x00, 0x02, 0x00, 0x00, 0x00, 0x01, 0x00, 0x00,
    0x00, 0x18, 0x00, 0x00, 0x00, 0x3e, 0xfd, 0xff, 0xff, 0x00, 0x00, 0x00, 0x01,
    0x14, 0x00, 0x00, 0x00, 0x1c, 0x00, 0x00, 0x00, 0x1c, 0x00, 0x00, 0x00, 0x09,
    0x00, 0x00, 0x00, 0x38, 0x00, 0x00, 0x00, 0x02, 0x00, 0x00, 0x00, 0xff, 0xff,
    0xff, 0xff, 0x18, 0x00, 0x00, 0x00, 0x28, 0xfd, 0xff, 0xff, 0x1c, 0x00, 0x00,
    0x00, 0x73, 0x65, 0x71, 0x75, 0x65, 0x6e, 0x74, 0x69, 0x61, 0x6c, 0x5f, 0x32,
    0x2f, 0x64, 0x65, 0x6e, 0x73, 0x65, 0x5f, 0x36, 0x2f, 0x53, 0x6f, 0x66, 0x74,
    0x6d, 0x61, 0x78, 0x00, 0x00, 0x00, 0x00, 0x02, 0x00, 0x00, 0x00, 0x01, 0x00,
    0x00, 0x00, 0x18, 0x00, 0x00, 0x00, 0x9a, 0xfd, 0xff, 0xff, 0x00, 0x00, 0x00,
    0x01, 0x14, 0x00, 0x00, 0x00, 0x1c, 0x00, 0x00, 0x00, 0x1c, 0x00, 0x00, 0x00,
    0x08, 0x00, 0x00, 0x00, 0x54, 0x00, 0x00, 0x00, 0x02, 0x00, 0x00, 0x00, 0xff,
    0xff, 0xff, 0xff, 0x18, 0x00, 0x00, 0x00, 0x84, 0xfd, 0xff, 0xff, 0x38, 0x00,
    0x00, 0x00, 0x73, 0x65, 0x71, 0x75, 0x65, 0x6e, 0x74, 0x69, 0x61, 0x6c, 0x5f,
    0x32, 0x2f, 0x64, 0x65, 0x6e, 0x73, 0x65, 0x5f, 0x36, 0x2f, 0x4d, 0x61, 0x74,
    0x4d, 0x75, 0x6c, 0x3b, 0x73, 0x65, 0x71, 0x75, 0x65, 0x6e, 0x74, 0x69, 0x61,
    0x6c, 0x5f, 0x32, 0x2f, 0x64, 0x65, 0x6e, 0x73, 0x65, 0x5f, 0x36, 0x2f, 0x42,
    0x69, 0x61, 0x73, 0x41, 0x64, 0x64, 0x00, 0x00, 0x00, 0x00, 0x02, 0x00, 0x00,
    0x00, 0x01, 0x00, 0x00, 0x00, 0x18, 0x00, 0x00, 0x00, 0x7e, 0xfe, 0xff, 0xff,
    0x00, 0x00, 0x00, 0x01, 0x10, 0x00, 0x00, 0x00, 0x10, 0x00, 0x00, 0x00, 0x07,
    0x00, 0x00, 0x00, 0x28, 0x00, 0x00, 0x00, 0xec, 0xfd, 0xff, 0xff, 0x1b, 0x00,
    0x00, 0x00, 0x73, 0x65, 0x71, 0x75, 0x65, 0x6e, 0x74, 0x69, 0x61, 0x6c, 0x5f,
    0x32, 0x2f, 0x64, 0x65, 0x6e, 0x73, 0x65, 0x5f, 0x38, 0x2f, 0x4d, 0x61, 0x74,
    0x4d, 0x75, 0x6c, 0x00, 0x02, 0x00, 0x00, 0x00, 0x01, 0x00, 0x00, 0x00, 0x18,
    0x00, 0x00, 0x00, 0xc6, 0xfe, 0xff, 0xff, 0x00, 0x00, 0x00, 0x01, 0x10, 0x00,
    0x00, 0x00, 0x10, 0x00, 0x00, 0x00, 0x06, 0x00, 0x00, 0x00, 0x28, 0x00, 0x00,
    0x00, 0x34, 0xfe, 0xff, 0xff, 0x1b, 0x00, 0x00, 0x00, 0x73, 0x65, 0x71, 0x75,
    0x65, 0x6e, 0x74, 0x69, 0x61, 0x6c, 0x5f, 0x32, 0x2f, 0x64, 0x65, 0x6e, 0x73,
    0x65, 0x5f, 0x37, 0x2f, 0x4d, 0x61, 0x74, 0x4d, 0x75, 0x6c, 0x00, 0x02, 0x00,
    0x00, 0x00, 0x18, 0x00, 0x00, 0x00, 0x18, 0x00, 0x00, 0x00, 0x0e, 0xff, 0xff,
    0xff, 0x00, 0x00, 0x00, 0x01, 0x10, 0x00, 0x00, 0x00, 0x10, 0x00, 0x00, 0x00,
    0x05, 0x00, 0x00, 0x00, 0x28, 0x00, 0x00, 0x00, 0x7c, 0xfe, 0xff, 0xff, 0x1b,
    0x00, 0x00, 0x00, 0x73, 0x65, 0x71, 0x75, 0x65, 0x6e, 0x74, 0x69, 0x61, 0x6c,
    0x5f, 0x32, 0x2f, 0x64, 0x65, 0x6e, 0x73, 0x65, 0x5f, 0x36, 0x2f, 0x4d, 0x61,
    0x74, 0x4d, 0x75, 0x6c, 0x00, 0x02, 0x00, 0x00, 0x00, 0x18, 0x00, 0x00, 0x00,
    0x01, 0x00, 0x00, 0x00, 0x56, 0xff, 0xff, 0xff, 0x00, 0x00, 0x00, 0x01, 0x10,
    0x00, 0x00, 0x00, 0x10, 0x00, 0x00, 0x00, 0x04, 0x00, 0x00, 0x00, 0x38, 0x00,
    0x00, 0x00, 0xc4, 0xfe, 0xff, 0xff, 0x2b, 0x00, 0x00, 0x00, 0x73, 0x65, 0x71,
    0x75, 0x65, 0x6e, 0x74, 0x69, 0x61, 0x6c, 0x5f, 0x32, 0x2f, 0x64, 0x65, 0x6e,
    0x73, 0x65, 0x5f, 0x36, 0x2f, 0x42, 0x69, 0x61, 0x73, 0x41, 0x64, 0x64, 0x2f,
    0x52, 0x65, 0x61, 0x64, 0x56, 0x61, 0x72, 0x69, 0x61, 0x62, 0x6c, 0x65, 0x4f,
    0x70, 0x00, 0x01, 0x00, 0x00, 0x00, 0x18, 0x00, 0x00, 0x00, 0xaa, 0xff, 0xff,
    0xff, 0x00, 0x00, 0x00, 0x01, 0x10, 0x00, 0x00, 0x00, 0x10, 0x00, 0x00, 0x00,
    0x03, 0x00, 0x00, 0x00, 0x38, 0x00, 0x00, 0x00, 0x18, 0xff, 0xff, 0xff, 0x2b,
    0x00, 0x00, 0x00, 0x73, 0x65, 0x71, 0x75, 0x65, 0x6e, 0x74, 0x69, 0x61, 0x6c,
    0x5f, 0x32, 0x2f, 0x64, 0x65, 0x6e, 0x73, 0x65, 0x5f, 0x37, 0x2f, 0x42, 0x69,
    0x61, 0x73, 0x41, 0x64, 0x64, 0x2f, 0x52, 0x65, 0x61, 0x64, 0x56, 0x61, 0x72,
    0x69, 0x61, 0x62, 0x6c, 0x65, 0x4f, 0x70, 0x00, 0x01, 0x00, 0x00, 0x00, 0x18,
    0x00, 0x00, 0x00, 0x00, 0x00, 0x16, 0x00, 0x18, 0x00, 0x14, 0x00, 0x00, 0x00,
    0x10, 0x00, 0x0c, 0x00, 0x08, 0x00, 0x00, 0x00, 0x00, 0x00, 0x00, 0x00, 0x07,
    0x00, 0x16, 0x00, 0x00, 0x00, 0x00, 0x00, 0x00, 0x01, 0x10, 0x00, 0x00, 0x00,
    0x10, 0x00, 0x00, 0x00, 0x02, 0x00, 0x00, 0x00, 0x38, 0x00, 0x00, 0x00, 0x84,
    0xff, 0xff, 0xff, 0x2b, 0x00, 0x00, 0x00, 0x73, 0x65, 0x71, 0x75, 0x65, 0x6e,
    0x74, 0x69, 0x61, 0x6c, 0x5f, 0x32, 0x2f, 0x64, 0x65, 0x6e, 0x73, 0x65, 0x5f,
    0x38, 0x2f, 0x42, 0x69, 0x61, 0x73, 0x41, 0x64, 0x64, 0x2f, 0x52, 0x65, 0x61,
    0x64, 0x56, 0x61, 0x72, 0x69, 0x61, 0x62, 0x6c, 0x65, 0x4f, 0x70, 0x00, 0x01,
    0x00, 0x00, 0x00, 0x01, 0x00, 0x00, 0x00, 0x00, 0x00, 0x16, 0x00, 0x1c, 0x00,
    0x18, 0x00, 0x00, 0x00, 0x14, 0x00, 0x10, 0x00, 0x0c, 0x00, 0x00, 0x00, 0x00,
    0x00, 0x08, 0x00, 0x07, 0x00, 0x16, 0x00, 0x00, 0x00, 0x00, 0x00, 0x00, 0x01,
    0x14, 0x00, 0x00, 0x00, 0x20, 0x00, 0x00, 0x00, 0x20, 0x00, 0x00, 0x00, 0x01,
    0x00, 0x00, 0x00, 0x3c, 0x00, 0x00, 0x00, 0x02, 0x00, 0x00, 0x00, 0xff, 0xff,
    0xff, 0xff, 0x01, 0x00, 0x00, 0x00, 0x04, 0x00, 0x04, 0x00, 0x04, 0x00, 0x00,
    0x00, 0x1f, 0x00, 0x00, 0x00, 0x73, 0x65, 0x72, 0x76, 0x69, 0x6e, 0x67, 0x5f,
    0x64, 0x65, 0x66, 0x61, 0x75, 0x6c, 0x74, 0x5f, 0x64, 0x65, 0x6e, 0x73, 0x65,
    0x5f, 0x36, 0x5f, 0x69, 0x6e, 0x70, 0x75, 0x74, 0x3a, 0x30, 0x00, 0x02, 0x00,
    0x00, 0x00, 0x01, 0x00, 0x00, 0x00, 0x01, 0x00, 0x00, 0x00, 0x02, 0x00, 0x00,
    0x00, 0x20, 0x00, 0x00, 0x00, 0x04, 0x00, 0x00, 0x00, 0xf4, 0xff, 0xff, 0xff,
    0x19, 0x00, 0x00, 0x00, 0x00, 0x00, 0x00, 0x19, 0x0c, 0x00, 0x0c, 0x00, 0x0b,
    0x00, 0x00, 0x00, 0x00, 0x00, 0x04, 0x00, 0x0c, 0x00, 0x00, 0x00, 0x09, 0x00,
    0x00, 0x00, 0x00, 0x00, 0x00, 0x09,
};
const int sine_model_len = 4764;
