
// This is a TensorFlow Lite model file that has been converted into a C data
// array using the tensorflow.lite.util.convert_bytes_to_c_source() function.
// This form is useful for compiling into a binary for devices that don't have a
// file system.


// We need to keep the data array aligned on some architectures.
#ifdef __has_attribute
#define HAVE_ATTRIBUTE(x) __has_attribute(x)
#else
#define HAVE_ATTRIBUTE(x) 0
#endif
#if HAVE_ATTRIBUTE(aligned) || (defined(__GNUC__) && !defined(__clang__))
#define DATA_ALIGN_ATTRIBUTE __attribute__((aligned(4)))
#else
#define DATA_ALIGN_ATTRIBUTE
#endif

const unsigned char sine_model[] DATA_ALIGN_ATTRIBUTE = {
    0x1c, 0x00, 0x00, 0x00, 0x54, 0x46, 0x4c, 0x33, 0x14, 0x00, 0x20, 0x00, 0x1c,
    0x00, 0x18, 0x00, 0x14, 0x00, 0x10, 0x00, 0x0c, 0x00, 0x00, 0x00, 0x08, 0x00,
    0x04, 0x00, 0x14, 0x00, 0x00, 0x00, 0x1c, 0x00, 0x00, 0x00, 0x98, 0x00, 0x00,
    0x00, 0xf0, 0x00, 0x00, 0x00, 0x8c, 0x09, 0x00, 0x00, 0x9c, 0x09, 0x00, 0x00,
    0x5c, 0x0f, 0x00, 0x00, 0x03, 0x00, 0x00, 0x00, 0x01, 0x00, 0x00, 0x00, 0x10,
    0x00, 0x00, 0x00, 0x00, 0x00, 0x0a, 0x00, 0x10, 0x00, 0x0c, 0x00, 0x08, 0x00,
    0x04, 0x00, 0x0a, 0x00, 0x00, 0x00, 0x0c, 0x00, 0x00, 0x00, 0x1c, 0x00, 0x00,
    0x00, 0x3c, 0x00, 0x00, 0x00, 0x0f, 0x00, 0x00, 0x00, 0x73, 0x65, 0x72, 0x76,
    0x69, 0x6e, 0x67, 0x5f, 0x64, 0x65, 0x66, 0x61, 0x75, 0x6c, 0x74, 0x00, 0x01,
    0x00, 0x00, 0x00, 0x04, 0x00, 0x00, 0x00, 0x90, 0xff, 0xff, 0xff, 0x0a, 0x00,
    0x00, 0x00, 0x04, 0x00, 0x00, 0x00, 0x08, 0x00, 0x00, 0x00, 0x64, 0x65, 0x6e,
    0x73, 0x65, 0x5f, 0x32, 0x30, 0x00, 0x00, 0x00, 0x00, 0x01, 0x00, 0x00, 0x00,
    0x04, 0x00, 0x00, 0x00, 0xee, 0xf5, 0xff, 0xff, 0x04, 0x00, 0x00, 0x00, 0x0e,
    0x00, 0x00, 0x00, 0x64, 0x65, 0x6e, 0x73, 0x65, 0x5f, 0x31, 0x38, 0x5f, 0x69,
    0x6e, 0x70, 0x75, 0x74, 0x00, 0x00, 0x02, 0x00, 0x00, 0x00, 0x34, 0x00, 0x00,
    0x00, 0x04, 0x00, 0x00, 0x00, 0xdc, 0xff, 0xff, 0xff, 0x0d, 0x00, 0x00, 0x00,
    0x04, 0x00, 0x00, 0x00, 0x13, 0x00, 0x00, 0x00, 0x43, 0x4f, 0x4e, 0x56, 0x45,
    0x52, 0x53, 0x49, 0x4f, 0x4e, 0x5f, 0x4d, 0x45, 0x54, 0x41, 0x44, 0x41, 0x54,
    0x41, 0x00, 0x08, 0x00, 0x0c, 0x00, 0x08, 0x00, 0x04, 0x00, 0x08, 0x00, 0x00,
    0x00, 0x0c, 0x00, 0x00, 0x00, 0x04, 0x00, 0x00, 0x00, 0x13, 0x00, 0x00, 0x00,
    0x6d, 0x69, 0x6e, 0x5f, 0x72, 0x75, 0x6e, 0x74, 0x69, 0x6d, 0x65, 0x5f, 0x76,
    0x65, 0x72, 0x73, 0x69, 0x6f, 0x6e, 0x00, 0x0e, 0x00, 0x00, 0x00, 0x98, 0x08,
    0x00, 0x00, 0x90, 0x08, 0x00, 0x00, 0x7c, 0x08, 0x00, 0x00, 0x1c, 0x08, 0x00,
    0x00, 0xbc, 0x07, 0x00, 0x00, 0x5c, 0x07, 0x00, 0x00, 0x0c, 0x01, 0x00, 0x00,
    0xac, 0x00, 0x00, 0x00, 0xa4, 0x00, 0x00, 0x00, 0x9c, 0x00, 0x00, 0x00, 0x94,
    0x00, 0x00, 0x00, 0x8c, 0x00, 0x00, 0x00, 0x6c, 0x00, 0x00, 0x00, 0x04, 0x00,
    0x00, 0x00, 0xa2, 0xf6, 0xff, 0xff, 0x04, 0x00, 0x00, 0x00, 0x58, 0x00, 0x00,
    0x00, 0x0c, 0x00, 0x00, 0x00, 0x08, 0x00, 0x0e, 0x00, 0x08, 0x00, 0x04, 0x00,
    0x08, 0x00, 0x00, 0x00, 0x10, 0x00, 0x00, 0x00, 0x28, 0x00, 0x00, 0x00, 0x00,
    0x00, 0x06, 0x00, 0x08, 0x00, 0x04, 0x00, 0x06, 0x00, 0x00, 0x00, 0x04, 0x00,
    0x00, 0x00, 0x01, 0x00, 0x00, 0x00, 0xea, 0x03, 0x00, 0x00, 0x00, 0x00, 0x0a,
    0x00, 0x10, 0x00, 0x0c, 0x00, 0x08, 0x00, 0x04, 0x00, 0x0a, 0x00, 0x00, 0x00,
    0x02, 0x00, 0x00, 0x00, 0x02, 0x00, 0x00, 0x00, 0x04, 0x00, 0x00, 0x00, 0x06,
    0x00, 0x00, 0x00, 0x32, 0x2e, 0x31, 0x32, 0x2e, 0x30, 0x00, 0x00, 0x06, 0xf7,
    0xff, 0xff, 0x04, 0x00, 0x00, 0x00, 0x10, 0x00, 0x00, 0x00, 0x31, 0x2e, 0x35,
    0x2e, 0x30, 0x00, 0x00, 0x00, 0x00, 0x00, 0x00, 0x00, 0x00, 0x00, 0x00, 0x00,
    0x80, 0xf2, 0xff, 0xff, 0x84, 0xf2, 0xff, 0xff, 0x88, 0xf2, 0xff, 0xff, 0x8c,
    0xf2, 0xff, 0xff, 0x32, 0xf7, 0xff, 0xff, 0x04, 0x00, 0x00, 0x00, 0x50, 0x00,
    0x00, 0x00, 0xc5, 0xf4, 0xa4, 0xbf, 0x54, 0x26, 0x0f, 0xbe, 0x28, 0x67, 0x64,
    0x3f, 0xe8, 0x89, 0xbc, 0x3e, 0xd2, 0x74, 0x86, 0xbf, 0xbc, 0xc4, 0x64, 0xbd,
    0x54, 0x7e, 0x4b, 0xbe, 0x9f, 0x7d, 0x1d, 0x40, 0xe6, 0xe7, 0xfb, 0x3e, 0xe2,
    0x3d, 0x62, 0xbf, 0x3f, 0x49, 0xe3, 0xbf, 0xf4, 0xb4, 0x54, 0x3f, 0xa5, 0x28,
    0xce, 0x3f, 0xa7, 0x3a, 0x24, 0x3f, 0x8e, 0x3e, 0x7e, 0xbf, 0x83, 0x46, 0x0a,
    0xbf, 0x0c, 0xc7, 0x31, 0xbf, 0xc7, 0xa6, 0xc5, 0x3e, 0x6a, 0x99, 0xf7, 0x3e,
    0xfb, 0x31, 0x00, 0xbf, 0x8e, 0xf7, 0xff, 0xff, 0x04, 0x00, 0x00, 0x00, 0x40,
    0x06, 0x00, 0x00, 0x05, 0xa9, 0xfc, 0x3e, 0x19, 0x95, 0x4d, 0xbe, 0x8d, 0x62,
    0xfe, 0x3d, 0xf7, 0xce, 0xc9, 0x3e, 0x54, 0xf1, 0x48, 0xbf, 0xe3, 0x05, 0x86,
    0xbd, 0xe9, 0x61, 0x21, 0xbc, 0x0b, 0xa3, 0xea, 0x3e, 0x3b, 0x77, 0xf0, 0xbe,
    0x89, 0x55, 0x71, 0x3e, 0x28, 0x90, 0x06, 0x3e, 0x64, 0xad, 0xb8, 0x3e, 0x12,
    0xef, 0xf8, 0x3e, 0x75, 0x1f, 0x64, 0xbf, 0x11, 0x82, 0x08, 0x3f, 0xd9, 0x9b,
    0x60, 0x3f, 0x90, 0xef, 0xdb, 0x3d, 0x9d, 0xa5, 0x8b, 0x3e, 0x79, 0x03, 0x79,
    0x3f, 0xb8, 0xec, 0x81, 0xbd, 0x9a, 0xf0, 0x6a, 0xbe, 0x40, 0xee, 0x69, 0xbe,
    0x42, 0xa2, 0xae, 0x3e, 0x80, 0xcd, 0xb4, 0xbd, 0x00, 0xe7, 0x6a, 0x3b, 0xd0,
    0xbd, 0x57, 0xbd, 0x02, 0xad, 0x80, 0xbe, 0xfc, 0x58, 0x44, 0x3e, 0x18, 0xcb,
    0xdc, 0xbd, 0x68, 0x8b, 0x7a, 0x3e, 0x9e, 0xea, 0x2a, 0xbe, 0x18, 0x99, 0x38,
    0xbd, 0x60, 0x31, 0x39, 0x3d, 0x3b, 0xe2, 0x9e, 0xbe, 0x60, 0x70, 0xee, 0x3c,
    0x59, 0x3a, 0x63, 0xbe, 0x90, 0x48, 0xee, 0x3d, 0xdc, 0x59, 0x96, 0xbd, 0xb0,
    0xa2, 0x93, 0xbc, 0xd0, 0x4e, 0xbb, 0xbc, 0xa0, 0x01, 0xa4, 0x3d, 0x95, 0x76,
    0xc4, 0x3e, 0x2b, 0xb2, 0x86, 0x3e, 0xbc, 0x52, 0xa2, 0x3e, 0x53, 0x78, 0xfe,
    0xbe, 0x8d, 0x81, 0xbe, 0x3e, 0x85, 0xc7, 0xca, 0x3e, 0x98, 0x5b, 0x52, 0xbe,
    0x02, 0x7b, 0x13, 0x3f, 0x84, 0x57, 0x34, 0x3f, 0x4b, 0xd5, 0x24, 0x3f, 0x5f,
    0x93, 0x1d, 0x3f, 0x1f, 0x67, 0x96, 0xbe, 0x83, 0xda, 0x47, 0xbd, 0xc9, 0x38,
    0xff, 0x3e, 0x73, 0x94, 0x81, 0xbe, 0x63, 0x5e, 0x0c, 0x3f, 0xc2, 0x84, 0xa9,
    0xbe, 0x27, 0xb7, 0x50, 0xbf, 0x00, 0x91, 0xc3, 0x3e, 0x40, 0x0a, 0xb0, 0xbc,
    0xe3, 0xab, 0x27, 0xbe, 0xd4, 0x99, 0xbd, 0xbd, 0x0f, 0xfc, 0x66, 0xbe, 0x7d,
    0x57, 0x89, 0xbe, 0x4b, 0x07, 0x79, 0xbe, 0x08, 0x6a, 0xc3, 0x3e, 0x0a, 0x86,
    0x01, 0xbe, 0x88, 0x57, 0x3b, 0x3d, 0xee, 0xb2, 0x81, 0xbe, 0xa8, 0xd7, 0xd4,
    0x3d, 0xfc, 0x3e, 0x96, 0xbe, 0xee, 0x7e, 0x9f, 0x3e, 0xae, 0x6f, 0x48, 0xbe,
    0x1e, 0x4d, 0xb7, 0x3e, 0x92, 0xe4, 0x93, 0x3e, 0xce, 0xa2, 0x42, 0xbe, 0xd0,
    0xe6, 0xb0, 0xbc, 0x9b, 0xb3, 0xb4, 0xbe, 0x50, 0x7e, 0x44, 0x3e, 0x37, 0xe0,
    0x10, 0x3f, 0x32, 0xb0, 0x80, 0xbe, 0x54, 0xa6, 0x31, 0xbe, 0x1e, 0x35, 0x81,
    0x3e, 0x3f, 0x64, 0x7d, 0xbf, 0x40, 0x70, 0xe3, 0x3e, 0x58, 0x94, 0x53, 0xbe,
    0x33, 0x0f, 0xfc, 0x3e, 0xc2, 0x5f, 0x98, 0xbe, 0x6e, 0x9e, 0xf9, 0x3d, 0x6a,
    0xb0, 0xd6, 0x3d, 0x3b, 0x20, 0x2d, 0x3e, 0x4f, 0xa3, 0xf9, 0x3e, 0x1b, 0x77,
    0x4c, 0xbf, 0x47, 0x45, 0x0c, 0x3f, 0xdd, 0xdd, 0xfe, 0x3e, 0x5d, 0xb4, 0x37,
    0xbe, 0xf8, 0x1e, 0x3d, 0x3f, 0xbc, 0x11, 0xe8, 0x3e, 0xe6, 0x2f, 0xc8, 0x3e,
    0x85, 0x53, 0x99, 0xbe, 0x51, 0xc4, 0x8b, 0xbe, 0x03, 0xe2, 0x74, 0xbe, 0xa5,
    0x74, 0x29, 0xbe, 0x8b, 0x0c, 0xac, 0xbd, 0x50, 0x08, 0xd4, 0xbd, 0x83, 0xe1,
    0x68, 0xbe, 0x1c, 0xbf, 0xb6, 0xbe, 0xd7, 0x24, 0xab, 0x3d, 0xfb, 0xcd, 0xb7,
    0xbe, 0x5c, 0x3c, 0x40, 0xbe, 0x36, 0x14, 0x9a, 0x3e, 0x4b, 0xab, 0x77, 0x3e,
    0xc6, 0xd9, 0x40, 0x3e, 0x31, 0x5f, 0x9e, 0xbd, 0x30, 0xc7, 0x3e, 0xbe, 0x29,
    0xc6, 0x88, 0xbe, 0x26, 0x85, 0x18, 0xbe, 0x2e, 0x20, 0x2d, 0x3e, 0x10, 0xe2,
    0x34, 0x3e, 0xb0, 0x9b, 0xae, 0x3e, 0xd6, 0x0f, 0x94, 0xbe, 0x58, 0xe8, 0x69,
    0x3e, 0x54, 0xd4, 0x66, 0x3e, 0x9c, 0xa3, 0x32, 0xbe, 0x4a, 0xdc, 0x47, 0xbe,
    0x74, 0xf2, 0x2f, 0x3e, 0xd4, 0xe0, 0xc1, 0xbe, 0x79, 0x1b, 0x60, 0xbe, 0x03,
    0x2d, 0x7a, 0xbe, 0x58, 0xf0, 0x66, 0xbe, 0xb4, 0x5d, 0xcb, 0x3d, 0x9d, 0xc0,
    0x97, 0xbe, 0x6c, 0x1a, 0xe4, 0x3d, 0xf0, 0xde, 0xd9, 0xbd, 0x40, 0x69, 0xb4,
    0x3b, 0x6e, 0xed, 0x80, 0xbe, 0xf4, 0xbf, 0xc3, 0x3d, 0xc9, 0xbc, 0xb3, 0xbe,
    0x01, 0xe0, 0x4f, 0xbe, 0x7b, 0x2e, 0xcf, 0xbe, 0xc2, 0x5e, 0xea, 0xbf, 0xa2,
    0x2b, 0xd9, 0xbf, 0x30, 0x45, 0xd8, 0xbf, 0xbb, 0x79, 0x21, 0x3f, 0xcd, 0xbe,
    0xcd, 0xbf, 0xd2, 0xa5, 0xec, 0xbf, 0x15, 0x80, 0xd0, 0xbe, 0x0b, 0x93, 0x00,
    0xc0, 0x5f, 0x52, 0xdb, 0xbf, 0x61, 0x51, 0xf2, 0xbf, 0xb5, 0xcc, 0xb9, 0xbf,
    0x9e, 0xdd, 0x17, 0xbf, 0xfe, 0x7e, 0xfe, 0xbe, 0x2d, 0x35, 0x89, 0xbf, 0x23,
    0xd8, 0x59, 0xbe, 0x7f, 0xdc, 0x0c, 0xc0, 0x65, 0xb2, 0xc8, 0xbe, 0x38, 0x66,
    0x0c, 0xbe, 0x47, 0x4e, 0xf1, 0xbf, 0x1a, 0xfc, 0xb2, 0x3e, 0x7c, 0xdc, 0x90,
    0xbe, 0xe0, 0x56, 0x56, 0xbc, 0xc0, 0x62, 0x0d, 0xbe, 0xab, 0x56, 0xac, 0xbe,
    0x90, 0xf6, 0x90, 0xbc, 0xa4, 0xf0, 0x9c, 0x3d, 0x10, 0xc2, 0x28, 0x3d, 0x9d,
    0xf1, 0xa1, 0xbe, 0x5c, 0x37, 0xcb, 0xbd, 0x54, 0xe4, 0x75, 0xbe, 0x3a, 0x88,
    0xac, 0x3e, 0x24, 0xda, 0x60, 0x3e, 0xf2, 0xcf, 0x85, 0xbe, 0xd6, 0xb1, 0x65,
    0xbe, 0x08, 0x45, 0x02, 0x3e, 0xc4, 0x14, 0x88, 0xbd, 0x0c, 0x7e, 0x05, 0x3e,
    0xb4, 0xb1, 0x9b, 0x3d, 0xf4, 0x26, 0x92, 0xbd, 0x2b, 0x9c, 0x4b, 0x3f, 0xe3,
    0x8a, 0x22, 0xbf, 0x66, 0xa3, 0x80, 0xbe, 0x5d, 0x97, 0x10, 0x3f, 0x99, 0xcd,
    0x76, 0xbf, 0xf7, 0x3e, 0x07, 0xbe, 0x17, 0x2b, 0x6d, 0x3d, 0x33, 0x38, 0x4a,
    0x3f, 0x3c, 0x85, 0x88, 0x3e, 0x86, 0x95, 0xf5, 0xbd, 0x2e, 0xdb, 0xbe, 0x3e,
    0xb3, 0x58, 0x02, 0x3f, 0x59, 0xea, 0x4b, 0x3f, 0x48, 0xc2, 0x4d, 0xbf, 0xcc,
    0x5b, 0x15, 0x3f, 0x2f, 0xee, 0xdc, 0x3e, 0x74, 0x31, 0x80, 0x3e, 0x00, 0xaf,
    0x94, 0x3e, 0x0c, 0x58, 0x89, 0x3f, 0x41, 0xb1, 0xe7, 0xbd, 0x6e, 0x36, 0x52,
    0xbf, 0xb9, 0x23, 0x2c, 0x3f, 0x99, 0x38, 0xf8, 0xbe, 0xc9, 0xce, 0x54, 0xbf,
    0x7b, 0x36, 0x3d, 0xbe, 0xeb, 0x3a, 0x8a, 0xbe, 0x21, 0x05, 0x30, 0xbf, 0x10,
    0xd8, 0x93, 0xbf, 0xf6, 0xf7, 0x83, 0xbe, 0x37, 0x13, 0x55, 0xbe, 0x93, 0xb2,
    0x4b, 0xbf, 0x8f, 0xda, 0xd1, 0xbe, 0x0c, 0x7e, 0x80, 0xbf, 0xa1, 0x58, 0x64,
    0x3f, 0x32, 0xa6, 0x04, 0xbf, 0x00, 0x80, 0x1c, 0xbf, 0xb6, 0xbc, 0x18, 0xbf,
    0xf7, 0x8b, 0x0b, 0xbf, 0xb5, 0x16, 0xf3, 0xbe, 0xe5, 0xc6, 0x23, 0xbf, 0x43,
    0xb5, 0x3d, 0x3e, 0xcb, 0xea, 0xe3, 0x3e, 0x38, 0x72, 0x0e, 0x3f, 0xab, 0xa5,
    0xef, 0x3d, 0xa2, 0xf8, 0xf0, 0xbe, 0xb0, 0xdb, 0x11, 0xbd, 0xae, 0xa4, 0x95,
    0x3e, 0x59, 0x06, 0xd2, 0xbe, 0x0b, 0x18, 0x29, 0x3f, 0xa5, 0x96, 0x2d, 0x3f,
    0xa6, 0x22, 0x86, 0x3d, 0xd7, 0x6c, 0x27, 0x3f, 0x58, 0x17, 0xa0, 0x3e, 0x09,
    0x98, 0x26, 0x3c, 0x9c, 0xcc, 0x14, 0x3e, 0xe1, 0x83, 0xe3, 0xbc, 0xfc, 0xe3,
    0x14, 0x3f, 0x5e, 0x19, 0x13, 0xbf, 0x2e, 0x7e, 0x50, 0xbf, 0x44, 0x88, 0xfa,
    0x3e, 0x99, 0x84, 0xa3, 0xbe, 0x8b, 0x82, 0x35, 0xbf, 0xb4, 0xdb, 0x01, 0xbf,
    0x73, 0xb8, 0x87, 0xbf, 0xad, 0xa7, 0x0d, 0x3f, 0xc9, 0x72, 0x2a, 0xbf, 0x50,
    0xdd, 0x82, 0xbf, 0x77, 0xb7, 0x03, 0xbf, 0x75, 0xd6, 0x48, 0xbf, 0x29, 0x46,
    0x8d, 0xbf, 0x62, 0x26, 0xa7, 0xbf, 0xc8, 0x2c, 0x4e, 0xbf, 0x29, 0x5e, 0x2f,
    0x3d, 0xa8, 0x73, 0x6e, 0xbf, 0x4b, 0xbf, 0x29, 0xbe, 0x4d, 0x42, 0x09, 0x3e,
    0xaf, 0xa8, 0xb5, 0xbf, 0x22, 0x4a, 0x89, 0xbe, 0x60, 0x45, 0xf4, 0xbd, 0x80,
    0xf5, 0x79, 0xbf, 0x52, 0x78, 0x39, 0x3d, 0x1e, 0x62, 0x42, 0x3f, 0x00, 0xaa,
    0x74, 0x3e, 0x59, 0x0c, 0xc1, 0x3e, 0xb0, 0xcd, 0x0a, 0xbf, 0x9e, 0x21, 0x57,
    0x3e, 0x20, 0xef, 0xa6, 0x3e, 0x39, 0x74, 0x28, 0x3e, 0x09, 0x39, 0xe1, 0x3e,
    0x90, 0x07, 0x32, 0x3f, 0x42, 0xba, 0xa3, 0x3e, 0xa5, 0xaa, 0x64, 0x3e, 0x7b,
    0x08, 0xb3, 0xbd, 0x97, 0x7a, 0x1a, 0xbd, 0xf6, 0x17, 0xa3, 0x3e, 0x20, 0x51,
    0xea, 0xbe, 0x6f, 0x3b, 0x2c, 0x3f, 0x14, 0xeb, 0x75, 0xbb, 0x93, 0x4b, 0xd1,
    0xbe, 0x2f, 0xb0, 0x6d, 0x3e, 0x99, 0xd9, 0x8f, 0xbe, 0xd4, 0xf6, 0xc4, 0x3e,
    0x12, 0xf1, 0xe4, 0x3d, 0x3f, 0x84, 0x22, 0xbf, 0x75, 0xce, 0xfa, 0x3e, 0xa9,
    0xd6, 0xdf, 0xbc, 0xc8, 0x31, 0x23, 0xbf, 0x47, 0x2d, 0x26, 0xbf, 0x0c, 0xe0,
    0x23, 0xbe, 0xd7, 0x8b, 0x75, 0xbe, 0x8f, 0x09, 0x27, 0xbf, 0x44, 0xff, 0x2b,
    0xbf, 0xd1, 0xec, 0x45, 0xbf, 0xc2, 0xee, 0x52, 0x3f, 0x72, 0x7b, 0x0d, 0xbe,
    0x4d, 0x7a, 0x14, 0xbf, 0xdb, 0x18, 0x8d, 0xbe, 0xf3, 0x23, 0x2e, 0xbf, 0xa1,
    0xe8, 0xf7, 0xbe, 0x89, 0x30, 0x6c, 0xbe, 0x15, 0x87, 0x22, 0xbf, 0xa4, 0xa4,
    0x32, 0x3e, 0x26, 0x9a, 0xed, 0xbe, 0x79, 0xdf, 0xc6, 0xbe, 0x17, 0xa9, 0x98,
    0x3e, 0x41, 0xf2, 0x8a, 0xbe, 0x78, 0x68, 0x85, 0xbe, 0xef, 0x8d, 0x4f, 0xbf,
    0x60, 0xed, 0xa2, 0xbe, 0xde, 0xa9, 0x87, 0xbe, 0x26, 0x31, 0x28, 0xbf, 0x7d,
    0xc0, 0x3c, 0xbf, 0x3d, 0x2b, 0x1b, 0xbf, 0x0c, 0xf7, 0x7d, 0x3f, 0x90, 0xf8,
    0x55, 0xbf, 0x0e, 0x8b, 0x0b, 0xbf, 0xcb, 0xb7, 0x1a, 0xbf, 0xf2, 0x81, 0x4d,
    0xbe, 0x6a, 0xbf, 0x8f, 0xbe, 0xbc, 0x1e, 0x1e, 0xbf, 0x26, 0x02, 0x36, 0xbf,
    0xd4, 0xbc, 0xc0, 0x3e, 0x4f, 0x4e, 0x91, 0xbd, 0xcd, 0xdf, 0x02, 0xbf, 0xd9,
    0x43, 0x43, 0x3e, 0x95, 0x02, 0x4c, 0xbf, 0x79, 0x2a, 0xc6, 0xbe, 0xd1, 0x3c,
    0x1a, 0xbf, 0xb4, 0xe9, 0x33, 0xbe, 0x7a, 0x60, 0x0d, 0xbf, 0xd1, 0xe7, 0x2f,
    0xbf, 0x71, 0xc7, 0x71, 0xbe, 0x67, 0x24, 0x41, 0xbf, 0xd3, 0xd1, 0x19, 0x3f,
    0x3d, 0xbc, 0x5d, 0xbf, 0x48, 0xcc, 0xd0, 0xbe, 0xa0, 0xf1, 0x9b, 0xbe, 0xb4,
    0xee, 0x79, 0xbf, 0x18, 0xbd, 0x2d, 0xbf, 0x92, 0xb7, 0xad, 0xbe, 0xca, 0x93,
    0x9a, 0xbe, 0x1e, 0xe4, 0xdb, 0x3e, 0x55, 0xd1, 0x9f, 0x3e, 0x73, 0x81, 0x55,
    0x3e, 0x11, 0x73, 0x62, 0xbe, 0x48, 0xe6, 0xf7, 0x3e, 0x61, 0xc4, 0x26, 0x3f,
    0x70, 0xd6, 0x22, 0x3e, 0xd5, 0x0f, 0xe4, 0x3e, 0x7e, 0x8f, 0xae, 0x3e, 0xfb,
    0x4a, 0x01, 0x3f, 0x2c, 0xe0, 0x3d, 0x3e, 0x22, 0x8a, 0xca, 0xbe, 0x1b, 0x7a,
    0x44, 0xbc, 0x01, 0x4f, 0x95, 0x3e, 0xe9, 0x54, 0xb7, 0xbc, 0x76, 0x91, 0xf8,
    0x3e, 0xea, 0x51, 0xd3, 0xbe, 0x75, 0x91, 0x4c, 0xbf, 0xb3, 0xcd, 0xad, 0x3e,
    0xe6, 0xb8, 0x3c, 0xbd, 0xca, 0x8a, 0x10, 0x3f, 0x73, 0xa1, 0xd8, 0x3e, 0xb2,
    0xb3, 0x13, 0x3f, 0xff, 0x92, 0x63, 0xbe, 0x10, 0xd3, 0xc5, 0x3e, 0xf2, 0xfc,
    0x19, 0x3f, 0x48, 0xc5, 0x10, 0xbe, 0x3e, 0x39, 0xd3, 0x3e, 0xe6, 0x27, 0xfb,
    0x3c, 0xa4, 0x9b, 0x93, 0x3e, 0xe2, 0x3b, 0xa5, 0x3e, 0xee, 0xa7, 0x92, 0xbe,
    0x21, 0x99, 0x24, 0xbe, 0xa7, 0x6a, 0xe1, 0x3e, 0x73, 0x36, 0x66, 0x3e, 0xdd,
    0x4b, 0x53, 0x3e, 0x63, 0xce, 0x24, 0xbf, 0xbf, 0x32, 0xa4, 0xbe, 0xce, 0x33,
    0x01, 0x3e, 0x7c, 0x09, 0x58, 0xbe, 0x4f, 0x3c, 0x9b, 0xbe, 0x37, 0x94, 0xa1,
    0x3e, 0x8f, 0xfb, 0xfb, 0x3b, 0x2c, 0xba, 0x13, 0x3d, 0xfe, 0x59, 0x83, 0xbe,
    0xdf, 0xbc, 0x12, 0x3e, 0xbe, 0x83, 0xc0, 0xbd, 0xed, 0xc6, 0x0a, 0xbe, 0xd9,
    0x38, 0x2a, 0x3d, 0x3c, 0xcc, 0xc5, 0xbe, 0x86, 0x11, 0xb0, 0xbc, 0xfa, 0x39,
    0xa2, 0xbc, 0x4f, 0x84, 0x44, 0xbd, 0x47, 0xb9, 0x48, 0x3e, 0xb0, 0x89, 0x7f,
    0xbc, 0xc7, 0xc3, 0xc2, 0x3e, 0xcc, 0xeb, 0x37, 0x3b, 0xd8, 0x9a, 0xb9, 0xbd,
    0x98, 0xbf, 0x48, 0xbe, 0xda, 0xfd, 0xff, 0xff, 0x04, 0x00, 0x00, 0x00, 0x50,
    0x00, 0x00, 0x00, 0x80, 0xdd, 0x2e, 0xbf, 0x80, 0x57, 0xd7, 0x3e, 0x35, 0xc2,
    0x8a, 0xbd, 0x59, 0x97, 0x91, 0xbe, 0x96, 0xbf, 0x6c, 0x3f, 0x8f, 0x83, 0x3e,
    0xbe, 0x4f, 0x65, 0x15, 0xbe, 0x8f, 0x6e, 0x3e, 0xbf, 0x95, 0x79, 0x7d, 0x3d,
    0xec, 0xbf, 0x91, 0xbd, 0xe0, 0x61, 0x4a, 0xbe, 0x9c, 0x14, 0x76, 0xbe, 0xb0,
    0xd7, 0x39, 0xbf, 0xc8, 0x27, 0x0d, 0x3f, 0x33, 0xac, 0xd4, 0xbe, 0x5d, 0x49,
    0x62, 0xbf, 0x2a, 0x90, 0xb3, 0xbc, 0xb1, 0x32, 0x77, 0xbf, 0xae, 0xbe, 0x9f,
    0xbf, 0x6d, 0x50, 0x23, 0xbe, 0x36, 0xfe, 0xff, 0xff, 0x04, 0x00, 0x00, 0x00,
    0x50, 0x00, 0x00, 0x00, 0xdb, 0x48, 0xa7, 0x3e, 0x2e, 0xb4, 0xe8, 0xbd, 0x64,
    0x12, 0xa9, 0xbe, 0x79, 0x5f, 0xc0, 0x3e, 0xfe, 0xd9, 0x1b, 0xbf, 0x99, 0x27,
    0x99, 0xbe, 0xaa, 0x5c, 0xa3, 0x3e, 0xf8, 0x61, 0x1d, 0x3f, 0x1a, 0x69, 0xa9,
    0x3c, 0xe0, 0x8d, 0xa0, 0x3e, 0x8d, 0xb1, 0xbf, 0x3e, 0x09, 0x6a, 0x9a, 0x3e,
    0x6b, 0x13, 0x1e, 0x3f, 0x08, 0x0f, 0x53, 0xbd, 0x49, 0x7d, 0x68, 0x3e, 0x83,
    0x96, 0xbf, 0x3e, 0x28, 0x33, 0xc4, 0x3e, 0x9e, 0x20, 0xde, 0x3e, 0xfc, 0xf0,
    0x05, 0x3f, 0x10, 0x06, 0x7a, 0x3e, 0x92, 0xfe, 0xff, 0xff, 0x04, 0x00, 0x00,
    0x00, 0x50, 0x00, 0x00, 0x00, 0x21, 0x5b, 0xd5, 0xbb, 0x00, 0x00, 0x00, 0x00,
    0xc4, 0xef, 0x29, 0x3e, 0x00, 0x00, 0x00, 0x00, 0x12, 0xbd, 0x82, 0xbd, 0x1e,
    0x7b, 0x7e, 0xbd, 0x00, 0x00, 0x00, 0x00, 0x88, 0x44, 0xac, 0xbd, 0x00, 0x00,
    0x00, 0x00, 0xc1, 0xed, 0xa0, 0x3d, 0x18, 0x7c, 0xdc, 0x3c, 0xd8, 0xca, 0x0e,
    0x3e, 0x6c, 0x98, 0x2a, 0xbc, 0x84, 0x63, 0x51, 0x3e, 0x30, 0x5d, 0x8c, 0xbb,
    0x84, 0x6f, 0x16, 0x3c, 0xac, 0x31, 0x3f, 0x3d, 0xd6, 0xb4, 0xf9, 0x3b, 0x0b,
    0xfd, 0x1c, 0x3d, 0xde, 0xff, 0xb2, 0xbc, 0xee, 0xfe, 0xff, 0xff, 0x04, 0x00,
    0x00, 0x00, 0x04, 0x00, 0x00, 0x00, 0x80, 0xdf, 0x1b, 0xbd, 0x5c, 0xfa, 0xff,
    0xff, 0x60, 0xfa, 0xff, 0xff, 0x0f, 0x00, 0x00, 0x00, 0x4d, 0x4c, 0x49, 0x52,
    0x20, 0x43, 0x6f, 0x6e, 0x76, 0x65, 0x72, 0x74, 0x65, 0x64, 0x2e, 0x00, 0x01,
    0x00, 0x00, 0x00, 0x14, 0x00, 0x00, 0x00, 0x00, 0x00, 0x0e, 0x00, 0x18, 0x00,
    0x14, 0x00, 0x10, 0x00, 0x0c, 0x00, 0x08, 0x00, 0x04, 0x00, 0x0e, 0x00, 0x00,
    0x00, 0x14, 0x00, 0x00, 0x00, 0x1c, 0x00, 0x00, 0x00, 0x20, 0x01, 0x00, 0x00,
    0x24, 0x01, 0x00, 0x00, 0x28, 0x01, 0x00, 0x00, 0x04, 0x00, 0x00, 0x00, 0x6d,
    0x61, 0x69, 0x6e, 0x00, 0x00, 0x00, 0x00, 0x04, 0x00, 0x00, 0x00, 0xd4, 0x00,
    0x00, 0x00, 0x88, 0x00, 0x00, 0x00, 0x38, 0x00, 0x00, 0x00, 0x04, 0x00, 0x00,
    0x00, 0x4a, 0xff, 0xff, 0xff, 0x10, 0x00, 0x00, 0x00, 0x00, 0x00, 0x00, 0x08,
    0x0c, 0x00, 0x00, 0x00, 0x10, 0x00, 0x00, 0x00, 0xdc, 0xfa, 0xff, 0xff, 0x01,
    0x00, 0x00, 0x00, 0x0a, 0x00, 0x00, 0x00, 0x03, 0x00, 0x00, 0x00, 0x09, 0x00,
    0x00, 0x00, 0x06, 0x00, 0x00, 0x00, 0x01, 0x00, 0x00, 0x00, 0x7a, 0xff, 0xff,
    0xff, 0x18, 0x00, 0x00, 0x00, 0x00, 0x00, 0x00, 0x08, 0x18, 0x00, 0x00, 0x00,
    0x1c, 0x00, 0x00, 0x00, 0x00, 0x00, 0x06, 0x00, 0x08, 0x00, 0x07, 0x00, 0x06,
    0x00, 0x00, 0x00, 0x00, 0x00, 0x00, 0x01, 0x01, 0x00, 0x00, 0x00, 0x09, 0x00,
    0x00, 0x00, 0x03, 0x00, 0x00, 0x00, 0x08, 0x00, 0x00, 0x00, 0x05, 0x00, 0x00,
    0x00, 0x02, 0x00, 0x00, 0x00, 0x00, 0x00, 0x0e, 0x00, 0x1a, 0x00, 0x14, 0x00,
    0x10, 0x00, 0x0c, 0x00, 0x0b, 0x00, 0x04, 0x00, 0x0e, 0x00, 0x00, 0x00, 0x1c,
    0x00, 0x00, 0x00, 0x00, 0x00, 0x00, 0x09, 0x1c, 0x00, 0x00, 0x00, 0x20, 0x00,
    0x00, 0x00, 0x01, 0x00, 0x00, 0x00, 0x00, 0x00, 0x06, 0x00, 0x08, 0x00, 0x04,
    0x00, 0x06, 0x00, 0x00, 0x00, 0x00, 0x00, 0x80, 0x3f, 0x01, 0x00, 0x00, 0x00,
    0x08, 0x00, 0x00, 0x00, 0x01, 0x00, 0x00, 0x00, 0x07, 0x00, 0x00, 0x00, 0x00,
    0x00, 0x0e, 0x00, 0x14, 0x00, 0x00, 0x00, 0x10, 0x00, 0x0c, 0x00, 0x0b, 0x00,
    0x04, 0x00, 0x0e, 0x00, 0x00, 0x00, 0x10, 0x00, 0x00, 0x00, 0x00, 0x00, 0x00,
    0x08, 0x0c, 0x00, 0x00, 0x00, 0x10, 0x00, 0x00, 0x00, 0xa0, 0xfb, 0xff, 0xff,
    0x01, 0x00, 0x00, 0x00, 0x07, 0x00, 0x00, 0x00, 0x03, 0x00, 0x00, 0x00, 0x00,
    0x00, 0x00, 0x00, 0x04, 0x00, 0x00, 0x00, 0x03, 0x00, 0x00, 0x00, 0x01, 0x00,
    0x00, 0x00, 0x0a, 0x00, 0x00, 0x00, 0x01, 0x00, 0x00, 0x00, 0x00, 0x00, 0x00,
    0x00, 0x0b, 0x00, 0x00, 0x00, 0x08, 0x04, 0x00, 0x00, 0x94, 0x03, 0x00, 0x00,
    0x20, 0x03, 0x00, 0x00, 0xc4, 0x02, 0x00, 0x00, 0x74, 0x02, 0x00, 0x00, 0x24,
    0x02, 0x00, 0x00, 0xd4, 0x01, 0x00, 0x00, 0x58, 0x01, 0x00, 0x00, 0xf8, 0x00,
    0x00, 0x00, 0x60, 0x00, 0x00, 0x00, 0x04, 0x00, 0x00, 0x00, 0x3a, 0xfc, 0xff,
    0xff, 0x00, 0x00, 0x00, 0x01, 0x14, 0x00, 0x00, 0x00, 0x1c, 0x00, 0x00, 0x00,
    0x1c, 0x00, 0x00, 0x00, 0x0b, 0x00, 0x00, 0x00, 0x34, 0x00, 0x00, 0x00, 0x02,
    0x00, 0x00, 0x00, 0xff, 0xff, 0xff, 0xff, 0x01, 0x00, 0x00, 0x00, 0x24, 0xfc,
    0xff, 0xff, 0x19, 0x00, 0x00, 0x00, 0x53, 0x74, 0x61, 0x74, 0x65, 0x66, 0x75,
    0x6c, 0x50, 0x61, 0x72, 0x74, 0x69, 0x74, 0x69, 0x6f, 0x6e, 0x65, 0x64, 0x43,
    0x61, 0x6c, 0x6c, 0x3a, 0x30, 0x00, 0x00, 0x00, 0x02, 0x00, 0x00, 0x00, 0x01,
    0x00, 0x00, 0x00, 0x01, 0x00, 0x00, 0x00, 0x92, 0xfc, 0xff, 0xff, 0x00, 0x00,
    0x00, 0x01, 0x14, 0x00, 0x00, 0x00, 0x1c, 0x00, 0x00, 0x00, 0x1c, 0x00, 0x00,
    0x00, 0x0a, 0x00, 0x00, 0x00, 0x70, 0x00, 0x00, 0x00, 0x02, 0x00, 0x00, 0x00,
    0xff, 0xff, 0xff, 0xff, 0x14, 0x00, 0x00, 0x00, 0x7c, 0xfc, 0xff, 0xff, 0x55,
    0x00, 0x00, 0x00, 0x73, 0x65, 0x71, 0x75, 0x65, 0x6e, 0x74, 0x69, 0x61, 0x6c,
    0x5f, 0x36, 0x2f, 0x64, 0x65, 0x6e, 0x73, 0x65, 0x5f, 0x31, 0x39, 0x2f, 0x4d,
    0x61, 0x74, 0x4d, 0x75, 0x6c, 0x3b, 0x73, 0x65, 0x71, 0x75, 0x65, 0x6e, 0x74,
    0x69, 0x61, 0x6c, 0x5f, 0x36, 0x2f, 0x64, 0x65, 0x6e, 0x73, 0x65, 0x5f, 0x31,
    0x39, 0x2f, 0x52, 0x65, 0x6c, 0x75, 0x3b, 0x73, 0x65, 0x71, 0x75, 0x65, 0x6e,
    0x74, 0x69, 0x61, 0x6c, 0x5f, 0x36, 0x2f, 0x64, 0x65, 0x6e, 0x73, 0x65, 0x5f,
    0x31, 0x39, 0x2f, 0x42, 0x69, 0x61, 0x73, 0x41, 0x64, 0x64, 0x00, 0x00, 0x00,
    0x02, 0x00, 0x00, 0x00, 0x01, 0x00, 0x00, 0x00, 0x14, 0x00, 0x00, 0x00, 0x26,
    0xfd, 0xff, 0xff, 0x00, 0x00, 0x00, 0x01, 0x14, 0x00, 0x00, 0x00, 0x1c, 0x00,
    0x00, 0x00, 0x1c, 0x00, 0x00, 0x00, 0x09, 0x00, 0x00, 0x00, 0x38, 0x00, 0x00,
    0x00, 0x02, 0x00, 0x00, 0x00, 0xff, 0xff, 0xff, 0xff, 0x14, 0x00, 0x00, 0x00,
    0x10, 0xfd, 0xff, 0xff, 0x1d, 0x00, 0x00, 0x00, 0x73, 0x65, 0x71, 0x75, 0x65,
    0x6e, 0x74, 0x69, 0x61, 0x6c, 0x5f, 0x36, 0x2f, 0x64, 0x65, 0x6e, 0x73, 0x65,
    0x5f, 0x31, 0x38, 0x2f, 0x53, 0x6f, 0x66, 0x74, 0x6d, 0x61, 0x78, 0x00, 0x00,
    0x00, 0x02, 0x00, 0x00, 0x00, 0x01, 0x00, 0x00, 0x00, 0x14, 0x00, 0x00, 0x00,
    0x82, 0xfd, 0xff, 0xff, 0x00, 0x00, 0x00, 0x01, 0x14, 0x00, 0x00, 0x00, 0x1c,
    0x00, 0x00, 0x00, 0x1c, 0x00, 0x00, 0x00, 0x08, 0x00, 0x00, 0x00, 0x54, 0x00,
    0x00, 0x00, 0x02, 0x00, 0x00, 0x00, 0xff, 0xff, 0xff, 0xff, 0x14, 0x00, 0x00,
    0x00, 0x6c, 0xfd, 0xff, 0xff, 0x3a, 0x00, 0x00, 0x00, 0x73, 0x65, 0x71, 0x75,
    0x65, 0x6e, 0x74, 0x69, 0x61, 0x6c, 0x5f, 0x36, 0x2f, 0x64, 0x65, 0x6e, 0x73,
    0x65, 0x5f, 0x31, 0x38, 0x2f, 0x4d, 0x61, 0x74, 0x4d, 0x75, 0x6c, 0x3b, 0x73,
    0x65, 0x71, 0x75, 0x65, 0x6e, 0x74, 0x69, 0x61, 0x6c, 0x5f, 0x36, 0x2f, 0x64,
    0x65, 0x6e, 0x73, 0x65, 0x5f, 0x31, 0x38, 0x2f, 0x42, 0x69, 0x61, 0x73, 0x41,
    0x64, 0x64, 0x00, 0x00, 0x02, 0x00, 0x00, 0x00, 0x01, 0x00, 0x00, 0x00, 0x14,
    0x00, 0x00, 0x00, 0x6a, 0xfe, 0xff, 0xff, 0x00, 0x00, 0x00, 0x01, 0x10, 0x00,
    0x00, 0x00, 0x10, 0x00, 0x00, 0x00, 0x07, 0x00, 0x00, 0x00, 0x2c, 0x00, 0x00,
    0x00, 0xd4, 0xfd, 0xff, 0xff, 0x1c, 0x00, 0x00, 0x00, 0x73, 0x65, 0x71, 0x75,
    0x65, 0x6e, 0x74, 0x69, 0x61, 0x6c, 0x5f, 0x36, 0x2f, 0x64, 0x65, 0x6e, 0x73,
    0x65, 0x5f, 0x32, 0x30, 0x2f, 0x4d, 0x61, 0x74, 0x4d, 0x75, 0x6c, 0x00, 0x00,
    0x00, 0x00, 0x02, 0x00, 0x00, 0x00, 0x01, 0x00, 0x00, 0x00, 0x14, 0x00, 0x00,
    0x00, 0xb6, 0xfe, 0xff, 0xff, 0x00, 0x00, 0x00, 0x01, 0x10, 0x00, 0x00, 0x00,
    0x10, 0x00, 0x00, 0x00, 0x06, 0x00, 0x00, 0x00, 0x2c, 0x00, 0x00, 0x00, 0x20,
    0xfe, 0xff, 0xff, 0x1c, 0x00, 0x00, 0x00, 0x73, 0x65, 0x71, 0x75, 0x65, 0x6e,
    0x74, 0x69, 0x61, 0x6c, 0x5f, 0x36, 0x2f, 0x64, 0x65, 0x6e, 0x73, 0x65, 0x5f,
    0x31, 0x39, 0x2f, 0x4d, 0x61, 0x74, 0x4d, 0x75, 0x6c, 0x00, 0x00, 0x00, 0x00,
    0x02, 0x00, 0x00, 0x00, 0x14, 0x00, 0x00, 0x00, 0x14, 0x00, 0x00, 0x00, 0x02,
    0xff, 0xff, 0xff, 0x00, 0x00, 0x00, 0x01, 0x10, 0x00, 0x00, 0x00, 0x10, 0x00,
    0x00, 0x00, 0x05, 0x00, 0x00, 0x00, 0x2c, 0x00, 0x00, 0x00, 0x6c, 0xfe, 0xff,
    0xff, 0x1c, 0x00, 0x00, 0x00, 0x73, 0x65, 0x71, 0x75, 0x65, 0x6e, 0x74, 0x69,
    0x61, 0x6c, 0x5f, 0x36, 0x2f, 0x64, 0x65, 0x6e, 0x73, 0x65, 0x5f, 0x31, 0x38,
    0x2f, 0x4d, 0x61, 0x74, 0x4d, 0x75, 0x6c, 0x00, 0x00, 0x00, 0x00, 0x02, 0x00,
    0x00, 0x00, 0x14, 0x00, 0x00, 0x00, 0x01, 0x00, 0x00, 0x00, 0x4e, 0xff, 0xff,
    0xff, 0x00, 0x00, 0x00, 0x01, 0x10, 0x00, 0x00, 0x00, 0x10, 0x00, 0x00, 0x00,
    0x04, 0x00, 0x00, 0x00, 0x3c, 0x00, 0x00, 0x00, 0xb8, 0xfe, 0xff, 0xff, 0x2c,
    0x00, 0x00, 0x00, 0x73, 0x65, 0x71, 0x75, 0x65, 0x6e, 0x74, 0x69, 0x61, 0x6c,
    0x5f, 0x36, 0x2f, 0x64, 0x65, 0x6e, 0x73, 0x65, 0x5f, 0x31, 0x38, 0x2f, 0x42,
    0x69, 0x61, 0x73, 0x41, 0x64, 0x64, 0x2f, 0x52, 0x65, 0x61, 0x64, 0x56, 0x61,
    0x72, 0x69, 0x61, 0x62, 0x6c, 0x65, 0x4f, 0x70, 0x00, 0x00, 0x00, 0x00, 0x01,
    0x00, 0x00, 0x00, 0x14, 0x00, 0x00, 0x00, 0xa6, 0xff, 0xff, 0xff, 0x00, 0x00,
    0x00, 0x01, 0x10, 0x00, 0x00, 0x00, 0x10, 0x00, 0x00, 0x00, 0x03, 0x00, 0x00,
    0x00, 0x3c, 0x00, 0x00, 0x00, 0x10, 0xff, 0xff, 0xff, 0x2c, 0x00, 0x00, 0x00,
    0x73, 0x65, 0x71, 0x75, 0x65, 0x6e, 0x74, 0x69, 0x61, 0x6c, 0x5f, 0x36, 0x2f,
    0x64, 0x65, 0x6e, 0x73, 0x65, 0x5f, 0x31, 0x39, 0x2f, 0x42, 0x69, 0x61, 0x73,
    0x41, 0x64, 0x64, 0x2f, 0x52, 0x65, 0x61, 0x64, 0x56, 0x61, 0x72, 0x69, 0x61,
    0x62, 0x6c, 0x65, 0x4f, 0x70, 0x00, 0x00, 0x00, 0x00, 0x01, 0x00, 0x00, 0x00,
    0x14, 0x00, 0x00, 0x00, 0x00, 0x00, 0x16, 0x00, 0x18, 0x00, 0x14, 0x00, 0x00,
    0x00, 0x10, 0x00, 0x0c, 0x00, 0x08, 0x00, 0x00, 0x00, 0x00, 0x00, 0x00, 0x00,
    0x07, 0x00, 0x16, 0x00, 0x00, 0x00, 0x00, 0x00, 0x00, 0x01, 0x10, 0x00, 0x00,
    0x00, 0x10, 0x00, 0x00, 0x00, 0x02, 0x00, 0x00, 0x00, 0x3c, 0x00, 0x00, 0x00,
    0x80, 0xff, 0xff, 0xff, 0x2c, 0x00, 0x00, 0x00, 0x73, 0x65, 0x71, 0x75, 0x65,
    0x6e, 0x74, 0x69, 0x61, 0x6c, 0x5f, 0x36, 0x2f, 0x64, 0x65, 0x6e, 0x73, 0x65,
    0x5f, 0x32, 0x30, 0x2f, 0x42, 0x69, 0x61, 0x73, 0x41, 0x64, 0x64, 0x2f, 0x52,
    0x65, 0x61, 0x64, 0x56, 0x61, 0x72, 0x69, 0x61, 0x62, 0x6c, 0x65, 0x4f, 0x70,
    0x00, 0x00, 0x00, 0x00, 0x01, 0x00, 0x00, 0x00, 0x01, 0x00, 0x00, 0x00, 0x00,
    0x00, 0x16, 0x00, 0x1c, 0x00, 0x18, 0x00, 0x00, 0x00, 0x14, 0x00, 0x10, 0x00,
    0x0c, 0x00, 0x00, 0x00, 0x00, 0x00, 0x08, 0x00, 0x07, 0x00, 0x16, 0x00, 0x00,
    0x00, 0x00, 0x00, 0x00, 0x01, 0x14, 0x00, 0x00, 0x00, 0x20, 0x00, 0x00, 0x00,
    0x20, 0x00, 0x00, 0x00, 0x01, 0x00, 0x00, 0x00, 0x40, 0x00, 0x00, 0x00, 0x02,
    0x00, 0x00, 0x00, 0xff, 0xff, 0xff, 0xff, 0x01, 0x00, 0x00, 0x00, 0x04, 0x00,
    0x04, 0x00, 0x04, 0x00, 0x00, 0x00, 0x20, 0x00, 0x00, 0x00, 0x73, 0x65, 0x72,
    0x76, 0x69, 0x6e, 0x67, 0x5f, 0x64, 0x65, 0x66, 0x61, 0x75, 0x6c, 0x74, 0x5f,
    0x64, 0x65, 0x6e, 0x73, 0x65, 0x5f, 0x31, 0x38, 0x5f, 0x69, 0x6e, 0x70, 0x75,
    0x74, 0x3a, 0x30, 0x00, 0x00, 0x00, 0x00, 0x02, 0x00, 0x00, 0x00, 0x01, 0x00,
    0x00, 0x00, 0x01, 0x00, 0x00, 0x00, 0x02, 0x00, 0x00, 0x00, 0x20, 0x00, 0x00,
    0x00, 0x04, 0x00, 0x00, 0x00, 0xf4, 0xff, 0xff, 0xff, 0x19, 0x00, 0x00, 0x00,
    0x00, 0x00, 0x00, 0x19, 0x0c, 0x00, 0x0c, 0x00, 0x0b, 0x00, 0x00, 0x00, 0x00,
    0x00, 0x04, 0x00, 0x0c, 0x00, 0x00, 0x00, 0x09, 0x00, 0x00, 0x00, 0x00, 0x00,
    0x00, 0x09,
};
const int sine_model_len = 4032;
